<unk>	0
<s>	0
</s>	0
in	-0
er	-1
<<<<<<< HEAD
an	-2
on	-3
es	-4
ar	-5
ed	-6
en	-7
at	-8
ing	-9
al	-10
or	-11
▁s	-12
▁S	-13
it	-14
is	-15
re	-16
▁c	-17
▁C	-18
le	-19
▁M	-20
ic	-21
▁A	-22
as	-23
ou	-24
el	-25
th	-26
▁p	-27
▁B	-28
▁P	-29
il	-30
ac	-31
am	-32
ro	-33
▁d	-34
▁T	-35
ion	-36
▁b	-37
▁D	-38
▁R	-39
▁m	-40
ad	-41
un	-42
▁t	-43
ol	-44
et	-45
▁f	-46
▁H	-47
om	-48
▁G	-49
ur	-50
ch	-51
st	-52
ent	-53
▁K	-54
ap	-55
ab	-56
▁L	-57
▁h	-58
im	-59
ig	-60
id	-61
ers	-62
▁E	-63
▁F	-64
ec	-65
ag	-66
os	-67
ul	-68
ir	-69
▁I	-70
▁N	-71
ot	-72
▁w	-73
▁g	-74
ut	-75
em	-76
um	-77
▁l	-78
▁W	-79
us	-80
ly	-81
ow	-82
and	-83
iv	-84
ay	-85
ess	-86
ah	-87
ak	-88
est	-89
▁n	-90
▁re	-91
od	-92
ation	-93
ter	-94
ri	-95
op	-96
av	-97
▁O	-98
▁r	-99
▁J	-100
▁e	-101
oc	-102
▁in	-103
ist	-104
▁V	-105
ep	-106
qu	-107
if	-108
ant	-109
ov	-110
up	-111
ip	-112
▁U	-113
--	-114
ate	-115
▁st	-116
iz	-117
ang	-118
he	-119
igh	-120
▁un	-121
ub	-122
og	-123
ard	-124
ell	-125
ra	-126
all	-127
uc	-128
eth	-129
▁Ch	-130
ill	-131
▁k	-132
oo	-133
ts	-134
ack	-135
end	-136
ie	-137
▁Sh	-138
▁v	-139
ff	-140
ous	-141
ia	-142
ib	-143
ies	-144
ce	-145
ass	-146
our	-147
ey	-148
sh	-149
ath	-150
ob	-151
ev	-152
ick	-153
ain	-154
▁con	-155
ud	-156
art	-157
ish	-158
oun	-159
pl	-160
▁St	-161
ine	-162
able	-163
ight	-164
tion	-165
ans	-166
▁th	-167
ik	-168
▁a	-169
▁In	-170
eg	-171
ug	-172
▁ch	-173
ef	-174
ast	-175
ive	-176
ort	-177
eb	-178
▁sh	-179
ity	-180
ens	-181
▁Y	-182
▁ex	-183
ear	-184
ind	-185
ock	-186
ust	-187
ated	-188
ect	-189
ash	-190
ach	-191
▁j	-192
aw	-193
▁Z	-194
ry	-195
ew	-196
der	-197
▁sp	-198
ai	-199
▁An	-200
ors	-201
ian	-202
ong	-203
ok	-204
ex	-205
of	-206
orm	-207
IN	-208
ert	-209
az	-210
ct	-211
▁pro	-212
man	-213
out	-214
ont	-215
ph	-216
omp	-217
ail	-218
ial	-219
ord	-220
one	-221
app	-222
▁Al	-223
▁y	-224
▁Un	-225
act	-226
ER	-227
ire	-228
ite	-229
oth	-230
ment	-231
ee	-232
ost	-233
ons	-234
▁tr	-235
▁dis	-236
▁Th	-237
ical	-238
int	-239
age	-240
ings	-241
over	-242
ark	-243
att	-244
ile	-245
les	-246
ood	-247
ure	-248
▁Ar	-249
eh	-250
ating	-251
ide	-252
ress	-253
own	-254
old	-255
▁bl	-256
ann	-257
▁sc	-258
ook	-259
oy	-260
ith	-261
to	-262
ele	-263
ber	-264
per	-265
ver	-266
tr	-267
enc	-268
ond	-269
ram	-270
ink	-271
row	-272
ue	-273
res	-274
uck	-275
ary	-276
AR	-277
▁Q	-278
ix	-279
ge	-280
ank	-281
▁cl	-282
apos	-283
▁Sp	-284
ult	-285
ling	-286
ness	-287
ound	-288
anc	-289
▁fl	-290
omm	-291
AN	-292
orn	-293
▁X	-294
ign	-295
▁im	-296
led	-297
ty	-298
▁Tr	-299
te	-300
ations	-301
gh	-302
aj	-303
ting	-304
bo	-305
ins	-306
uk	-307
iss	-308
▁wh	-309
als	-310
ss	-311
oll	-312
▁pl	-313
ace	-314
▁pre	-315
ere	-316
cl	-317
▁le	-318
▁gr	-319
sp	-320
yn	-321
ier	-322
ime	-323
off	-324
ille	-325
amp	-326
af	-327
▁En	-328
▁Wh	-329
ates	-330
ore	-331
ton	-332
▁Ex	-333
ites	-334
ES	-335
ari	-336
ush	-337
we	-338
ork	-339
ron	-340
ice	-341
ted	-342
eng	-343
▁ro	-344
are	-345
ely	-346
erm	-347
ions	-348
▁ad	-349
ich	-350
aph	-351
ize	-352
arm	-353
erv	-354
rip	-355
ON	-356
ree	-357
▁Am	-358
▁al	-359
▁sub	-360
▁Cl	-361
▁Sc	-362
ern	-363
rop	-364
ars	-365
OR	-366
▁Br	-367
iel	-368
ator	-369
▁Ad	-370
atch	-371
air	-372
▁non	-373
ets	-374
▁Bl	-375
ence	-376
io	-377
red	-378
ance	-379
▁Con	-380
▁El	-381
sc	-382
ead	-383
AT	-384
ED	-385
ax	-386
eck	-387
ise	-388
▁qu	-389
ied	-390
und	-391
▁sl	-392
oh	-393
ne	-394
ull	-395
▁Gr	-396
org	-397
uff	-398
EN	-399
yp	-400
gr	-401
the	-402
ally	-403
ING	-404
ents	-405
au	-406
ek	-407
▁ac	-408
ious	-409
its	-410
se	-411
elf	-412
ool	-413
ung	-414
ough	-415
ized	-416
▁x	-417
umb	-418
▁cr	-419
▁over	-420
ake	-421
esh	-422
ium	-423
ale	-424
ric	-425
▁Re	-426
ater	-427
ful	-428
▁Ph	-429
▁rec	-430
ym	-431
▁Ab	-432
▁Mar	-433
amm	-434
ase	-435
ats	-436
▁res	-437
amb	-438
▁Pro	-439
urg	-440
ade	-441
▁ar	-442
less	-443
ame	-444
oot	-445
ys	-446
ics	-447
▁Fl	-448
ome	-449
▁comp	-450
ana	-451
IS	-452
ya	-453
ition	-454
rib	-455
▁em	-456
pro	-457
eed	-458
ump	-459
ane	-460
ild	-461
▁pr	-462
form	-463
land	-464
alk	-465
oss	-466
wh	-467
eep	-468
▁en	-469
ose	-470
ered	-471
ha	-472
itt	-473
▁ab	-474
ll	-475
ox	-476
▁br	-477
▁dec	-478
inn	-479
AL	-480
ani	-481
omb	-482
oul	-483
ara	-484
arn	-485
ett	-486
ole	-487
ott	-488
▁Qu	-489
ines	-490
ction	-491
IT	-492
urn	-493
▁an	-494
▁sup	-495
ory	-496
bl	-497
els	-498
itch	-499
str	-500
olog	-501
ering	-502
fl	-503
agg	-504
ez	-505
eal	-506
▁Gu	-507
ased	-508
▁Pr	-509
tt	-510
ism	-511
▁Aut	-512
ble	-513
isc	-514
port	-515
▁z	-516
iew	-517
iff	-518
▁out	-519
ville	-520
now	-521
IC	-522
err	-523
▁Sub	-524
▁for	-525
▁Pl	-526
oint	-527
reen	-528
▁aut	-529
add	-530
arg	-531
-1	-532
LE	-533
ays	-534
ext	-535
ike	-536
ipp	-537
ave	-538
erg	-539
rom	-540
OM	-541
▁sm	-542
▁sw	-543
▁tw	-544
▁Pre	-545
con	-546
ina	-547
▁Ap	-548
ield	-549
ient	-550
by	-551
lo	-552
enn	-553
▁co	-554
uth	-555
ically	-556
iah	-557
arr	-558
▁per	-559
ve	-560
ask	-561
let	-562
▁inter	-563
pr	-564
sk	-565
ala	-566
uz	-567
▁of	-568
ech	-569
reak	-570
OU	-571
ery	-572
▁Or	-573
cess	-574
▁Man	-575
AS	-576
ify	-577
ugg	-578
▁op	-579
▁ph	-580
ible	-581
that	-582
ual	-583
umm	-584
▁Im	-585
▁Par	-586
▁ind	-587
▁comm	-588
esc	-589
oon	-590
▁up	-591
ific	-592
read	-593
AM	-594
▁fr	-595
br	-596
sy	-597
unn	-598
▁sk	-599
head	-600
ists	-601
ount	-602
ij	-603
alf	-604
asc	-605
ute	-606
▁str	-607
▁cont	-608
la	-609
ald	-610
▁Cr	-611
▁ob	-612
▁def	-613
ement	-614
▁Be	-615
▁gl	-616
▁trans	-617
IL	-618
que	-619
▁Fr	-620
▁or	-621
ama	-622
ley	-623
raph	-624
ities	-625
ler	-626
pos	-627
▁Em	-628
▁be	-629
aint	-630
line	-631
ouse	-632
▁par	-633
ative	-634
ET	-635
be	-636
ept	-637
oup	-638
▁Sl	-639
▁he	-640
rain	-641
aster	-642
EL	-643
unk	-644
ject	-645
lect	-646
ross	-647
▁sn	-648
ants	-649
ular	-650
▁app	-651
tions	-652
arb	-653
ata	-654
inc	-655
ret	-656
▁ev	-657
ards	-658
ID	-659
outh	-660
▁ass	-661
▁inc	-662
ft	-663
ali	-664
ict	-665
idd	-666
▁Ac	-667
olor	-668
RE	-669
ma	-670
oz	-671
uct	-672
ower	-673
unch	-674
▁acc	-675
▁under	-676
▁se	-677
orth	-678
▁Rec	-679
▁self	-680
ero	-681
lin	-682
uch	-683
urs	-684
▁am	-685
▁ant	-686
me	-687
ait	-688
▁dr	-689
ility	-690
ows	-691
▁min	-692
▁rep	-693
ily	-694
ode	-695
ih	-696
ene	-697
igg	-698
ugh	-699
▁Mc	-700
▁Res	-701
▁red	-702
pt	-703
aus	-704
ird	-705
▁Se	-706
ange	-707
▁Car	-708
▁Per	-709
US	-710
men	-711
ple	-712
ener	-713
▁int	-714
▁ref	-715
based	-716
apt	-717
ino	-718
▁Is	-719
ures	-720
AC	-721
mon	-722
rol	-723
▁Gl	-724
eter	-725
like	-726
da	-727
uh	-728
ena	-729
iles	-730
ution	-731
▁high	-732
yr	-733
eph	-734
ese	-735
raw	-736
uit	-737
▁Kh	-738
▁is	-739
AD	-740
Bl	-741
de	-742
aid	-743
onn	-744
▁ST	-745
back	-746
ised	-747
just	-748
ified	-749
ck	-750
dr	-751
min	-752
ots	-753
▁car	-754
ograph	-755
agn	-756
ano	-757
com	-758
oor	-759
▁wr	-760
ians	-761
izing	-762
oph	-763
orr	-764
you	-765
ever	-766
▁Cal	-767
▁Mal	-768
▁all	-769
▁off	-770
▁rev	-771
atter	-772
OL	-773
abb	-774
for	-775
ote	-776
unt	-777
ages	-778
ives	-779
▁Sch	-780
way	-781
▁us	-782
even	-783
▁imp	-784
▁inv	-785
board	-786
▁cons	-787
▁com	-788
ather	-789
ments	-790
▁Comp	-791
aps	-792
eek	-793
era	-794
irc	-795
key	-796
och	-797
osh	-798
▁As	-799
▁gu	-800
▁Bar	-801
▁att	-802
li	-803
aur	-804
▁Le	-805
▁Sk	-806
▁me	-807
▁rem	-808
▁Cont	-809
▁conf	-810
ua	-811
ux	-812
▁Ah	-813
▁on	-814
ened	-815
reat	-816
▁Ind	-817
▁She	-818
▁del	-819
▁des	-820
▁ins	-821
inter	-822
▁hand	-823
OS	-824
▁i	-825
▁Sm	-826
iter	-827
ured	-828
▁Rep	-829
pe	-830
yl	-831
erc	-832
irl	-833
oop	-834
rog	-835
son	-836
▁Ag	-837
▁Dr	-838
▁Dis	-839
▁Mon	-840
▁Sal	-841
▁and	-842
▁exp	-843
▁back	-844
CH	-845
ove	-846
urr	-847
atic	-848
ening	-849
aff	-850
ips	-851
uss	-852
▁Sw	-853
ched	-854
time	-855
▁Ant	-856
▁dep	-857
▁mis	-858
▁mon	-859
ender	-860
OT	-861
opp	-862
▁He	-863
▁Col	-864
▁Har	-865
▁Sup	-866
▁Inter	-867
OD	-868
ayer	-869
burg	-870
rown	-871
view	-872
work	-873
OW	-874
ka	-875
ham	-876
ica	-877
par	-878
rel	-879
▁Op	-880
ited	-881
ream	-882
wood	-883
▁Dec	-884
▁Mac	-885
▁inf	-886
iness	-887
ization	-888
EC	-889
yst	-890
▁Bh	-891
▁ap	-892
▁we	-893
file	-894
ould	-895
▁Mah	-896
▁man	-897
AP	-898
ife	-899
▁ne	-900
ward	-901
▁ent	-902
▁mar	-903
▁pol	-904
▁ret	-905
ident	-906
▁Trans	-907
IM	-908
IR	-909
In	-910
ye	-911
bar	-912
ini	-913
ogg	-914
oil	-915
utt	-916
▁Me	-917
▁kn	-918
▁And	-919
▁Cor	-920
▁col	-921
▁you	-922
ators	-923
▁disc	-924
gt	-925
aut	-926
erb	-927
lev	-928
▁Ed	-929
itor	-930
load	-931
▁Ass	-932
▁bro	-933
▁cor	-934
ae	-935
do	-936
▁At	-937
ably	-938
ency	-939
irst	-940
ones	-941
plic	-942
▁lib	-943
field	-944
-8	-945
UR	-946
ke	-947
na	-948
ps	-949
yc	-950
imm	-951
ray	-952
▁Ma	-953
▁sec	-954
aking	-955
ister	-956
ouble	-957
00	-958
IG	-959
UM	-960
ION	-961
ola	-962
oom	-963
▁new	-964
iting	-965
alm	-966
emp	-967
ita	-968
rem	-969
▁as	-970
▁no	-971
▁Med	-972
▁reg	-973
▁mult	-974
ld	-975
oe	-976
anj	-977
ati	-978
ops	-979
ude	-980
ouch	-981
vers	-982
▁Mor	-983
▁met	-984
▁squ	-985
point	-986
▁Light	-987
-2	-988
adi	-989
aim	-990
any	-991
ids	-992
lic	-993
▁Az	-994
▁On	-995
▁SH	-996
inal	-997
ript	-998
▁one	-999
eness	-1000
umber	-1001
▁Auto	-1002
AY	-1003
Ch	-1004
co	-1005
go	-1006
duc	-1007
rif	-1008
use	-1009
▁CH	-1010
ours	-1011
room	-1012
ship	-1013
will	-1014
▁rel	-1015
earch	-1016
elect	-1017
utter	-1018
hi	-1019
iy	-1020
AND	-1021
alt	-1022
ape	-1023
oos	-1024
▁Ob	-1025
ides	-1026
ooth	-1027
▁not	-1028
▁sur	-1029
ously	-1030
▁coun	-1031
▁half	-1032
mm	-1033
day	-1034
emb	-1035
fer	-1036
lex	-1037
ony	-1038
rew	-1039
val	-1040
▁De	-1041
▁Rs	-1042
▁ag	-1043
ined	-1044
ison	-1045
this	-1046
▁Met	-1047
▁Red	-1048
▁che	-1049
▁dev	-1050
▁Comm	-1051
▁dist	-1052
box	-1053
▁IS	-1054
▁Tw	-1055
▁hy	-1056
aker	-1057
ider	-1058
ocks	-1059
ored	-1060
ries	-1061
▁det	-1062
▁mid	-1063
ander	-1064
erson	-1065
ising	-1066
other	-1067
press	-1068
uj	-1069
ada	-1070
ams	-1071
arl	-1072
fig	-1073
ias	-1074
ien	-1075
iet	-1076
ody	-1077
ser	-1078
udd	-1079
▁Ak	-1080
▁KD	-1081
ourn	-1082
ster	-1083
▁Def	-1084
▁div	-1085
ights	-1086
▁part	-1087
IF	-1088
St	-1089
oj	-1090
arp	-1091
ope	-1092
oud	-1093
reg	-1094
ury	-1095
ves	-1096
▁Er	-1097
▁La	-1098
▁el	-1099
▁ir	-1100
Blue	-1101
down	-1102
ital	-1103
pect	-1104
▁All	-1105
▁Che	-1106
▁Pol	-1107
▁Mult	-1108
UT	-1109
fs	-1110
aul	-1111
oad	-1112
oke	-1113
ule	-1114
▁Ev	-1115
▁Ne	-1116
akes	-1117
ames	-1118
ands	-1119
▁Com	-1120
▁Del	-1121
▁enc	-1122
irect	-1123
ational	-1124
UL	-1125
ky	-1126
ml	-1127
uv	-1128
uy	-1129
elp	-1130
udi	-1131
ues	-1132
uro	-1133
▁Sn	-1134
▁oc	-1135
aged	-1136
ains	-1137
cent	-1138
ends	-1139
icks	-1140
list	-1141
▁Min	-1142
▁New	-1143
▁Non	-1144
▁mod	-1145
▁two	-1146
▁unc	-1147
ished	-1148
ively	-1149
▁post	-1150
▁well	-1151
ection	-1152
NT	-1153
iph	-1154
itz	-1155
oes	-1156
oft	-1157
por	-1158
put	-1159
uel	-1160
▁at	-1161
▁av	-1162
▁ed	-1163
▁te	-1164
alls	-1165
anch	-1166
roll	-1167
▁Ash	-1168
▁Mad	-1169
▁Sam	-1170
▁Val	-1171
▁Beth	-1172
elling	-1173
wr	-1174
ags	-1175
aya	-1176
irm	-1177
uzz	-1178
▁No	-1179
ford	-1180
iver	-1181
▁Dark	-1182
▁head	-1183
▁pres	-1184
ending	-1185
IP	-1186
ba	-1187
acc	-1188
imp	-1189
ira	-1190
ius	-1191
ype	-1192
▁Ba	-1193
ears	-1194
etic	-1195
iest	-1196
ired	-1197
mark	-1198
vent	-1199
▁Mer	-1200
▁Rem	-1201
▁Sur	-1202
▁The	-1203
▁dem	-1204
▁ext	-1205
▁und	-1206
ellow	-1207
▁anti	-1208
ze	-1209
akh	-1210
ner	-1211
not	-1212
ved	-1213
yth	-1214
▁Pe	-1215
▁de	-1216
▁gn	-1217
ench	-1218
outs	-1219
rate	-1220
▁Bro	-1221
▁Ram	-1222
▁med	-1223
▁sch	-1224
▁she	-1225
ances	-1226
uring	-1227
OC	-1228
ENT	-1229
ili	-1230
ilt	-1231
ima	-1232
rec	-1233
▁pe	-1234
aced	-1235
berg	-1236
omin	-1237
▁cle	-1238
light	-1239
ought	-1240
▁Mont	-1241
▁inst	-1242
EP	-1243
IV	-1244
ks	-1245
uf	-1246
acy	-1247
bed	-1248
idg	-1249
uts	-1250
war	-1251
illa	-1252
ring	-1253
▁Des	-1254
▁For	-1255
▁end	-1256
▁uns	-1257
aries	-1258
ently	-1259
▁work	-1260
▁super	-1261
UN	-1262
bor	-1263
etr	-1264
ift	-1265
▁Av	-1266
▁TH	-1267
abel	-1268
icro	-1269
ills	-1270
vert	-1271
▁Ber	-1272
▁Reg	-1273
▁sal	-1274
arted	-1275
ulation	-1276
RA	-1277
gl	-1278
za	-1279
ced	-1280
ras	-1281
urt	-1282
yan	-1283
▁Ir	-1284
▁We	-1285
arth	-1286
▁Att	-1287
▁Hol	-1288
ences	-1289
▁know	-1290
▁cross	-1291
85	-1292
ava	-1293
ior	-1294
odd	-1295
oin	-1296
ups	-1297
ades	-1298
ager	-1299
aves	-1300
edst	-1301
ilit	-1302
ores	-1303
sych	-1304
well	-1305
▁Mag	-1306
▁exc	-1307
aring	-1308
ended	-1309
itter	-1310
aa	-1311
gu	-1312
alc	-1313
iro	-1314
▁fe	-1315
▁ov	-1316
acks	-1317
ails	-1318
▁Kal	-1319
▁Tim	-1320
▁hon	-1321
istic	-1322
ology	-1323
ource	-1324
▁hard	-1325
▁pass	-1326
▁rest	-1327
EM	-1328
oa	-1329
tw	-1330
har	-1331
iqu	-1332
law	-1333
mer	-1334
ura	-1335
▁Hy	-1336
▁Kr	-1337
augh	-1338
hand	-1339
ided	-1340
tern	-1341
weet	-1342
what	-1343
word	-1344
ying	-1345
▁Hel	-1346
▁Str	-1347
▁imm	-1348
▁key	-1349
▁pur	-1350
▁syn	-1351
ained	-1352
ision	-1353
under	-1354
▁long	-1355
itions	-1356
ucking	-1357
unction	-1358
ST	-1359
pa	-1360
wa	-1361
yb	-1362
ato	-1363
ged	-1364
han	-1365
ida	-1366
ils	-1367
ims	-1368
ral	-1369
raz	-1370
urb	-1371
yle	-1372
▁Co	-1373
▁Di	-1374
▁Ge	-1375
▁go	-1376
ared	-1377
ense	-1378
ette	-1379
with	-1380
▁Dev	-1381
▁Int	-1382
▁Kar	-1383
▁Pal	-1384
▁Sar	-1385
▁fil	-1386
▁the	-1387
aying	-1388
eless	-1389
ester	-1390
fully	-1391
inger	-1392
iving	-1393
▁spec	-1394
action	-1395
gn	-1396
ms	-1397
yt	-1398
bro	-1399
elt	-1400
irt	-1401
isk	-1402
ula	-1403
urd	-1404
uri	-1405
▁af	-1406
ices	-1407
ping	-1408
serv	-1409
umer	-1410
used	-1411
▁Mod	-1412
▁Pat	-1413
▁her	-1414
check	-1415
ength	-1416
right	-1417
shire	-1418
ulate	-1419
▁four	-1420
ification	-1421
yg	-1422
IST	-1423
eld	-1424
oid	-1425
ora	-1426
oub	-1427
ued	-1428
▁ec	-1429
▁it	-1430
aces	-1431
enty	-1432
reas	-1433
ried	-1434
ther	-1435
uild	-1436
▁Cle	-1437
▁Raj	-1438
▁Ser	-1439
▁bar	-1440
▁fre	-1441
▁sav	-1442
▁sim	-1443
▁sol	-1444
actor	-1445
ality	-1446
arian	-1447
illed	-1448
▁Cons	-1449
▁auto	-1450
▁fire	-1451
itting	-1452
ability	-1453
GE	-1454
OP	-1455
Sp	-1456
ais	-1457
▁Gh	-1458
▁PR	-1459
▁TR	-1460
▁Ur	-1461
aped	-1462
ault	-1463
book	-1464
ects	-1465
enth	-1466
ests	-1467
orld	-1468
uman	-1469
▁Bal	-1470
▁Bel	-1471
▁Cap	-1472
▁Rob	-1473
▁Sim	-1474
▁Sol	-1475
▁ill	-1476
activ	-1477
apped	-1478
ected	-1479
AV	-1480
Sc	-1481
ui	-1482
izz	-1483
oto	-1484
roc	-1485
rod	-1486
▁di	-1487
amed	-1488
ball	-1489
born	-1490
gram	-1491
look	-1492
resh	-1493
ural	-1494
▁Gal	-1495
▁Ref	-1496
▁aff	-1497
▁air	-1498
▁low	-1499
aving	-1500
eling	-1501
ested	-1502
ument	-1503
utton	-1504
▁ever	-1505
▁with	-1506
▁your	-1507
ML	-1508
TH	-1509
Wh	-1510
hh	-1511
ja	-1512
ki	-1513
ni	-1514
no	-1515
oi	-1516
ERS	-1517
uns	-1518
▁Ha	-1519
amar	-1520
ises	-1521
onds	-1522
path	-1523
▁Rad	-1524
▁can	-1525
▁cap	-1526
▁pat	-1527
▁top	-1528
ately	-1529
house	-1530
order	-1531
oring	-1532
▁Post	-1533
▁cond	-1534
▁down	-1535
acking	-1536
ND	-1537
859	-1538
aka	-1539
awa	-1540
eta	-1541
ito	-1542
ona	-1543
oni	-1544
ped	-1545
rey	-1546
une	-1547
usc	-1548
▁CR	-1549
▁Id	-1550
▁Te	-1551
▁to	-1552
amin	-1553
aven	-1554
aver	-1555
lock	-1556
oman	-1557
utes	-1558
▁Acc	-1559
▁Ang	-1560
▁Ben	-1561
▁Haz	-1562
▁Mat	-1563
▁May	-1564
▁Ros	-1565
▁ann	-1566
▁bel	-1567
▁hom	-1568
▁men	-1569
▁six	-1570
▁unf	-1571
break	-1572
ingle	-1573
organ	-1574
stand	-1575
▁High	-1576
▁Over	-1577
▁coll	-1578
▁wind	-1579
▁black	-1580
▁elect	-1581
▁counter	-1582
10	-1583
12	-1584
EG	-1585
UC	-1586
cm	-1587
cr	-1588
fo	-1589
ado	-1590
bit	-1591
boy	-1592
ces	-1593
ela	-1594
ika	-1595
mar	-1596
ogn	-1597
ros	-1598
rup	-1599
uls	-1600
ume	-1601
abad	-1602
aiah	-1603
angu	-1604
aved	-1605
emon	-1606
inch	-1607
stit	-1608
ving	-1609
year	-1610
▁Kir	-1611
▁Mel	-1612
▁Tab	-1613
▁deb	-1614
-8859	-1615
aging	-1616
ivers	-1617
ordin	-1618
owing	-1619
▁Sand	-1620
▁circ	-1621
▁prof	-1622
apping	-1623
illing	-1624
iously	-1625
▁water	-1626
HT	-1627
Pl	-1628
agu	-1629
egr	-1630
ety	-1631
ilk	-1632
leg	-1633
rev	-1634
set	-1635
▁Ol	-1636
▁aw	-1637
▁bo	-1638
▁ep	-1639
▁er	-1640
ayed	-1641
eful	-1642
imin	-1643
izes	-1644
leth	-1645
▁Mir	-1646
▁Out	-1647
▁Rev	-1648
▁cur	-1649
▁ser	-1650
▁spl	-1651
Green	-1652
acked	-1653
ading	-1654
anger	-1655
▁conv	-1656
▁form	-1657
▁sign	-1658
icking	-1659
▁short	-1660
▁three	-1661
AB	-1662
EAR	-1663
aki	-1664
apa	-1665
her	-1666
sec	-1667
udg	-1668
▁Es	-1669
abor	-1670
agon	-1671
anth	-1672
aper	-1673
arch	-1674
ares	-1675
cont	-1676
ires	-1677
▁God	-1678
▁Inc	-1679
▁Jeh	-1680
▁add	-1681
▁har	-1682
▁scr	-1683
etter	-1684
iding	-1685
ually	-1686
▁Arch	-1687
▁cent	-1688
▁just	-1689
▁Under	-1690
▁right	-1691
itation	-1692
ns	-1693
sm	-1694
ta	-1695
▁o	-1696
ESS	-1697
can	-1698
iec	-1699
ney	-1700
ugs	-1701
▁Je	-1702
▁ut	-1703
ason	-1704
eman	-1705
heth	-1706
idge	-1707
inst	-1708
ival	-1709
leep	-1710
lers	-1711
mail	-1712
orts	-1713
owed	-1714
▁Gen	-1715
▁Hor	-1716
▁Ish	-1717
▁Lib	-1718
▁You	-1719
▁equ	-1720
ashed	-1721
ented	-1722
inder	-1723
ingly	-1724
ining	-1725
riend	-1726
▁Port	-1727
▁check	-1728
▁double	-1729
EX	-1730
Sh	-1731
my	-1732
tk	-1733
ami	-1734
ein	-1735
ems	-1736
erd	-1737
oli	-1738
ran	-1739
ryp	-1740
▁Af	-1741
▁Ja	-1742
▁SP	-1743
▁Sa	-1744
▁do	-1745
ahed	-1746
ales	-1747
ases	-1748
elop	-1749
etch	-1750
four	-1751
irty	-1752
omet	-1753
rows	-1754
type	-1755
▁App	-1756
▁Ext	-1757
▁Fil	-1758
▁Fre	-1759
▁Mak	-1760
▁Mid	-1761
▁Pet	-1762
▁Sat	-1763
▁Squ	-1764
▁Vol	-1765
▁beg	-1766
▁but	-1767
▁cal	-1768
▁gen	-1769
▁law	-1770
ables	-1771
agram	-1772
alled	-1773
ially	-1774
older	-1775
rying	-1776
there	-1777
▁Char	-1778
▁Dist	-1779
ashing	-1780
nd	-1781
sl	-1782
va	-1783
ATE	-1784
aba	-1785
ila	-1786
imb	-1787
ref	-1788
uan	-1789
upp	-1790
▁IM	-1791
▁Ke	-1792
▁Rh	-1793
▁SC	-1794
▁bi	-1795
anda	-1796
comp	-1797
ersh	-1798
ials	-1799
only	-1800
rect	-1801
rist	-1802
unic	-1803
uted	-1804
▁Ann	-1805
▁Can	-1806
▁Dep	-1807
▁mem	-1808
▁mot	-1809
▁sym	-1810
ailed	-1811
akers	-1812
itive	-1813
ounds	-1814
struc	-1815
▁Back	-1816
▁Open	-1817
▁Pres	-1818
▁fort	-1819
▁good	-1820
▁show	-1821
▁text	-1822
ishing	-1823
▁Saint	-1824
▁blood	-1825
olution	-1826
Al	-1827
OO	-1828
PP	-1829
mp	-1830
▁q	-1831
azz	-1832
bel	-1833
eft	-1834
gar	-1835
ico	-1836
igr	-1837
med	-1838
osa	-1839
osc	-1840
ums	-1841
▁Gn	-1842
▁Kn	-1843
avel	-1844
epar	-1845
erse	-1846
illy	-1847
imes	-1848
otes	-1849
▁Bir	-1850
▁Bur	-1851
▁Dan	-1852
▁Dem	-1853
▁Exp	-1854
▁Rel	-1855
▁ast	-1856
▁doc	-1857
▁ple	-1858
ector	-1859
erman	-1860
eting	-1861
gress	-1862
ional	-1863
onder	-1864
▁Conf	-1865
▁conc	-1866
▁look	-1867
▁mark	-1868
▁pers	-1869
▁prop	-1870
▁tele	-1871
▁test	-1872
ifying	-1873
ission	-1874
▁grand	-1875
ahedron	-1876
Ed	-1877
cc	-1878
ls	-1879
nt	-1880
rr	-1881
Man	-1882
abl	-1883
ads	-1884
alu	-1885
arc	-1886
job	-1887
net	-1888
ogs	-1889
rot	-1890
top	-1891
ync	-1892
▁AC	-1893
▁AS	-1894
▁Bi	-1895
▁id	-1896
ango	-1897
anna	-1898
eder	-1899
empl	-1900
link	-1901
oked	-1902
than	-1903
▁Add	-1904
▁Bor	-1905
▁Det	-1906
▁Ham	-1907
▁Inv	-1908
▁Jer	-1909
▁Mil	-1910
▁Tor	-1911
▁adv	-1912
▁hot	-1913
▁how	-1914
▁occ	-1915
▁unt	-1916
acker	-1917
ament	-1918
asses	-1919
atory	-1920
ature	-1921
ipped	-1922
itted	-1923
olden	-1924
ottom	-1925
usion	-1926
▁Mark	-1927
▁diss	-1928
▁play	-1929
▁that	-1930
earing	-1931
ounded	-1932
▁Black	-1933
▁break	-1934
▁first	-1935
20	-1936
25	-1937
AK	-1938
EV	-1939
Tr	-1940
jo	-1941
ju	-1942
mi	-1943
ng	-1944
aca	-1945
agh	-1946
ago	-1947
aly	-1948
ger	-1949
ief	-1950
oma	-1951
thr	-1952
ube	-1953
▁Dh	-1954
▁GR	-1955
▁It	-1956
▁Ta	-1957
▁ic	-1958
▁la	-1959
▁po	-1960
anks	-1961
arge	-1962
conf	-1963
ffic	-1964
imal	-1965
ived	-1966
ourt	-1967
raft	-1968
them	-1969
▁Alt	-1970
▁Cam	-1971
▁Enc	-1972
▁Ret	-1973
▁Tar	-1974
▁emb	-1975
▁fin	-1976
▁mal	-1977
▁sem	-1978
▁thr	-1979
▁tra	-1980
elled	-1981
igned	-1982
ishes	-1983
iters	-1984
ories	-1985
worth	-1986
▁Disc	-1987
▁Long	-1988
▁Spec	-1989
▁corn	-1990
▁expl	-1991
▁list	-1992
▁pred	-1993
aining	-1994
-3	-1995
Cl	-1996
OG	-1997
Th	-1998
AIN	-1999
akk	-2000
inh	-2001
ori	-2002
two	-2003
usp	-2004
▁Bo	-2005
▁EX	-2006
▁Ep	-2007
▁GL	-2008
▁Mo	-2009
▁My	-2010
▁Ok	-2011
▁Up	-2012
▁ge	-2013
aked	-2014
anga	-2015
case	-2016
educ	-2017
ells	-2018
fish	-2019
iate	-2020
igit	-2021
illi	-2022
ords	-2023
otic	-2024
wise	-2025
▁Ast	-2026
▁Bas	-2027
▁But	-2028
▁Div	-2029
▁Her	-2030
▁art	-2031
▁eng	-2032
▁hyp	-2033
▁sat	-2034
▁ter	-2035
acing	-2036
asing	-2037
ember	-2038
erate	-2039
iment	-2040
style	-2041
tract	-2042
▁Wind	-2043
▁forg	-2044
▁full	-2045
▁hous	-2046
ements	-2047
ocking	-2048
▁after	-2049
▁micro	-2050
PS	-2051
SE	-2052
ea	-2053
án	-2054
EST	-2055
aro	-2056
asa	-2057
don	-2058
eez	-2059
oms	-2060
rik	-2061
una	-2062
▁AR	-2063
▁Il	-2064
▁Lo	-2065
▁UN	-2066
▁Wr	-2067
ache	-2068
acts	-2069
fect	-2070
five	-2071
fort	-2072
ique	-2073
name	-2074
osed	-2075
uous	-2076
▁Cat	-2077
▁Don	-2078
▁Han	-2079
▁Joh	-2080
▁Nav	-2081
▁Pop	-2082
▁Ren	-2083
▁Web	-2084
▁arm	-2085
▁bre	-2086
▁cat	-2087
▁den	-2088
▁est	-2089
▁leg	-2090
▁loc	-2091
▁reb	-2092
▁vis	-2093
iffer	-2094
iling	-2095
overn	-2096
print	-2097
▁Mart	-2098
▁Mich	-2099
▁five	-2100
▁prot	-2101
▁prov	-2102
▁vide	-2103
illion	-2104
ington	-2105
ulated	-2106
AH	-2107
Ar	-2108
Ex	-2109
dd	-2110
fe	-2111
fr	-2112
aby	-2113
eds	-2114
esp	-2115
ipe	-2116
ocr	-2117
oof	-2118
ski	-2119
ulf	-2120
▁Ka	-2121
▁Sy	-2122
▁Us	-2123
aken	-2124
aman	-2125
aste	-2126
away	-2127
fram	-2128
oles	-2129
orse	-2130
ware	-2131
▁CON	-2132
▁Gar	-2133
▁Mur	-2134
▁Nar	-2135
▁Net	-2136
▁Not	-2137
▁San	-2138
▁Sel	-2139
▁log	-2140
ample	-2141
aters	-2142
ermin	-2143
iring	-2144
itude	-2145
lines	-2146
owers	-2147
seven	-2148
▁Star	-2149
▁dest	-2150
▁land	-2151
▁real	-2152
ailing	-2153
alling	-2154
ession	-2155
▁class	-2156
▁heart	-2157
70	-2158
EF	-2159
Im	-2160
Or	-2161
Pr	-2162
TS	-2163
gg	-2164
ji	-2165
kh	-2166
ón	-2167
ORM	-2168
adu	-2169
enz	-2170
eps	-2171
ova	-2172
raf	-2173
six	-2174
ths	-2175
win	-2176
▁BR	-2177
▁CL	-2178
▁FL	-2179
▁Ga	-2180
▁Jo	-2181
▁Po	-2182
▁SU	-2183
▁om	-2184
▁so	-2185
face	-2186
iers	-2187
lets	-2188
mind	-2189
play	-2190
ples	-2191
riev	-2192
ways	-2193
▁Leg	-2194
▁Mas	-2195
▁Men	-2196
▁Pur	-2197
▁Sav	-2198
▁Sec	-2199
▁Tam	-2200
▁Top	-2201
▁ang	-2202
▁beh	-2203
▁env	-2204
▁get	-2205
▁hum	-2206
▁mor	-2207
▁neg	-2208
▁pen	-2209
▁pop	-2210
▁pub	-2211
▁ten	-2212
ATION	-2213
acter	-2214
aming	-2215
error	-2216
▁Mach	-2217
▁Part	-2218
▁Prop	-2219
▁arch	-2220
▁char	-2221
▁foot	-2222
▁happ	-2223
▁infl	-2224
▁read	-2225
▁resp	-2226
▁time	-2227
▁what	-2228
aching	-2229
inking	-2230
itable	-2231
▁Color	-2232
▁Multi	-2233
▁psych	-2234
looking	-2235
related	-2236
-4	-2237
BM	-2238
DD	-2239
PR	-2240
ca	-2241
ho	-2242
kn	-2243
ALL	-2244
AME	-2245
auc	-2246
bal	-2247
def	-2248
dir	-2249
ean	-2250
ete	-2251
eto	-2252
ibr	-2253
iol	-2254
ipl	-2255
iri	-2256
kin	-2257
met	-2258
pur	-2259
ren	-2260
rep	-2261
ria	-2262
rob	-2263
uni	-2264
▁EM	-2265
▁Go	-2266
▁Iv	-2267
▁KS	-2268
▁Na	-2269
agar	-2270
aire	-2271
amma	-2272
ecut	-2273
ella	-2274
iled	-2275
inds	-2276
iser	-2277
izer	-2278
long	-2279
oned	-2280
ston	-2281
▁Arg	-2282
▁Bol	-2283
▁Den	-2284
▁Equ	-2285
▁Hal	-2286
▁How	-2287
▁ISO	-2288
▁Ins	-2289
▁Log	-2290
▁Luc	-2291
▁Oct	-2292
▁Sil	-2293
▁Syn	-2294
▁Ter	-2295
▁arr	-2296
▁cop	-2297
▁inh	-2298
▁kcm	-2299
▁lif	-2300
▁sil	-2301
anted	-2302
ashes	-2303
eller	-2304
icker	-2305
ifies	-2306
level	-2307
▁Deep	-2308
▁Form	-2309
▁KDev	-2310
▁Pass	-2311
▁cock	-2312
anging	-2313
asting	-2314
▁North	-2315
▁eight	-2316
▁light	-2317
▁multi	-2318
eration	-2319
ibility	-2320
rection	-2321
.-	-2322
CE	-2323
CR	-2324
OV	-2325
PT	-2326
ao	-2327
zz	-2328
▁u	-2329
ARD	-2330
ILL	-2331
edd	-2332
gan	-2333
idn	-2334
ken	-2335
rie	-2336
sch	-2337
trl	-2338
ven	-2339
▁Ay	-2340
▁Mr	-2341
▁Ro	-2342
▁WH	-2343
▁Ye	-2344
▁ey	-2345
asts	-2346
echn	-2347
eled	-2348
ello	-2349
free	-2350
ince	-2351
lean	-2352
mann	-2353
ract	-2354
roph	-2355
shot	-2356
they	-2357
uses	-2358
▁Alb	-2359
▁COM	-2360
▁Cop	-2361
▁Hon	-2362
▁Lat	-2363
▁Sen	-2364
▁Som	-2365
▁Vis	-2366
▁bad	-2367
▁cut	-2368
▁lat	-2369
▁net	-2370
▁ren	-2371
▁val	-2372
allow	-2373
antly	-2374
eline	-2375
icked	-2376
iddle	-2377
ivity	-2378
lands	-2379
place	-2380
stone	-2381
ustom	-2382
water	-2383
▁Cent	-2384
▁Coun	-2385
▁Fire	-2386
▁Fort	-2387
▁Just	-2388
▁Land	-2389
▁What	-2390
▁ball	-2391
▁drop	-2392
▁extr	-2393
▁hear	-2394
▁mess	-2395
▁walk	-2396
ecting	-2397
esting	-2398
iction	-2399
itches	-2400
ressed	-2401
▁Super	-2402
▁stand	-2403
ologist	-2404
▁Christ	-2405
ological	-2406
EE	-2407
IB	-2408
SL	-2409
000	-2410
Con	-2411
abs	-2412
adr	-2413
cer	-2414
den	-2415
dep	-2416
ega	-2417
equ	-2418
erk	-2419
gor	-2420
mac	-2421
obb	-2422
ota	-2423
pha	-2424
rad	-2425
tim	-2426
tor	-2427
ubb	-2428
unc	-2429
▁AN	-2430
▁If	-2431
▁Lu	-2432
▁Py	-2433
▁lo	-2434
Part	-2435
aded	-2436
ader	-2437
aine	-2438
ancy	-2439
aram	-2440
arks	-2441
ause	-2442
band	-2443
foot	-2444
here	-2445
icky	-2446
ifty	-2447
ilot	-2448
ints	-2449
kins	-2450
onia	-2451
onic	-2452
rell	-2453
resp	-2454
rich	-2455
town	-2456
walk	-2457
▁Art	-2458
▁Cas	-2459
▁Dar	-2460
▁Gtk	-2461
▁Kat	-2462
▁Ken	-2463
▁McC	-2464
▁Mem	-2465
▁Nik	-2466
▁Off	-2467
▁Pan	-2468
▁Sab	-2469
▁Unc	-2470
▁cre	-2471
▁fam	-2472
▁hel	-2473
▁lev	-2474
▁pan	-2475
▁pay	-2476
▁soc	-2477
▁som	-2478
▁sor	-2479
▁tim	-2480
Color	-2481
chron	-2482
color	-2483
ifier	-2484
iller	-2485
mouth	-2486
ocket	-2487
▁Conn	-2488
▁Ever	-2489
▁Flor	-2490
▁Hamm	-2491
▁Phil	-2492
▁Prov	-2493
▁auth	-2494
▁desc	-2495
▁disp	-2496
▁fuck	-2497
▁need	-2498
▁stat	-2499
ension	-2500
ential	-2501
format	-2502
▁Chand	-2503
▁repro	-2504
ography	-2505
ressing	-2506
ulating	-2507
keyboard	-2508
.1	-2509
AG	-2510
FF	-2511
PC	-2512
PL	-2513
ii	-2514
so	-2515
sw	-2516
Red	-2517
aga	-2518
amy	-2519
asy	-2520
avi	-2521
des	-2522
ema	-2523
ges	-2524
how	-2525
inu	-2526
kar	-2527
lay	-2528
omy	-2529
osp	-2530
rah	-2531
rov	-2532
roy	-2533
tml	-2534
uma	-2535
▁AL	-2536
▁IN	-2537
▁KM	-2538
▁RE	-2539
▁SO	-2540
▁SW	-2541
▁Ul	-2542
▁ur	-2543
View	-2544
abil	-2545
agan	-2546
anet	-2547
ante	-2548
apan	-2549
elle	-2550
fold	-2551
iber	-2552
ican	-2553
ieth	-2554
iner	-2555
ogen	-2556
spec	-2557
ules	-2558
ully	-2559
uter	-2560
wide	-2561
▁Arr	-2562
▁Bat	-2563
▁Bre	-2564
▁Cab	-2565
▁Cre	-2566
▁Cur	-2567
▁Dod	-2568
▁End	-2569
▁Key	-2570
▁Max	-2571
▁Mis	-2572
▁Mot	-2573
▁Mus	-2574
▁Ste	-2575
▁Tri	-2576
▁Ver	-2577
▁amb	-2578
▁fav	-2579
▁gre	-2580
▁rob	-2581
▁saf	-2582
▁unp	-2583
▁wor	-2584
anded	-2585
arter	-2586
ching	-2587
ealth	-2588
ether	-2589
grade	-2590
heads	-2591
ocked	-2592
oints	-2593
ystem	-2594
▁Tele	-2595
▁Vide	-2596
▁West	-2597
▁book	-2598
▁fast	-2599
▁fram	-2600
▁prom	-2601
▁sens	-2602
▁shit	-2603
▁stra	-2604
▁user	-2605
etting	-2606
eville	-2607
ounding	-2608
ression	-2609
50	-2610
BS	-2611
Fl	-2612
TF	-2613
ga	-2614
ny	-2615
sv	-2616
OME	-2617
ORT	-2618
ahu	-2619
asm	-2620
aze	-2621
bol	-2622
cut	-2623
dev	-2624
iam	-2625
ilo	-2626
joy	-2627
nam	-2628
nes	-2629
orf	-2630
pol	-2631
she	-2632
zer	-2633
▁AM	-2634
▁Fe	-2635
▁KN	-2636
▁Ny	-2637
▁Oh	-2638
▁ho	-2639
▁my	-2640
▁ww	-2641
IGHT	-2642
aran	-2643
aser	-2644
atha	-2645
avan	-2646
comm	-2647
drop	-2648
eyed	-2649
ging	-2650
icip	-2651
ingu	-2652
iven	-2653
most	-2654
ocol	-2655
oded	-2656
ools	-2657
rief	-2658
rier	-2659
size	-2660
umin	-2661
your	-2662
▁Act	-2663
▁Amb	-2664
▁Dal	-2665
▁Deb	-2666
▁Doc	-2667
▁Eph	-2668
▁Had	-2669
▁Hot	-2670
▁Jan	-2671
▁Loc	-2672
▁Sem	-2673
▁Sor	-2674
▁Tan	-2675
▁Tur	-2676
▁asc	-2677
▁boo	-2678
▁cry	-2679
▁der	-2680
▁esc	-2681
▁pos	-2682
▁pot	-2683
▁spr	-2684
▁suc	-2685
▁tri	-2686
▁unm	-2687
▁vol	-2688
▁war	-2689
▁whe	-2690
ached	-2691
agged	-2692
anced	-2693
angle	-2694
group	-2695
icken	-2696
imate	-2697
ormal	-2698
posed	-2699
three	-2700
urity	-2701
▁Down	-2702
▁Hand	-2703
▁Hard	-2704
▁Mand	-2705
▁RAND	-2706
▁Self	-2707
▁Sher	-2708
▁This	-2709
▁Work	-2710
▁audi	-2711
▁call	-2712
▁girl	-2713
▁init	-2714
▁magn	-2715
▁mist	-2716
▁open	-2717
▁phot	-2718
▁serv	-2719
▁star	-2720
▁step	-2721
▁turn	-2722
ascals	-2723
encies	-2724
ensive	-2725
ething	-2726
iation	-2727
inning	-2728
shaped	-2729
▁count	-2730
▁gener	-2731
▁gnome	-2732
▁organ	-2733
▁sleep	-2734
atching	-2735
ographic	-2736
formation	-2737
.2	-2738
AA	-2739
CD	-2740
CM	-2741
Gr	-2742
KS	-2743
WM	-2744
ko	-2745
pg	-2746
ELL	-2747
The	-2748
abe	-2749
ady	-2750
asi	-2751
awn	-2752
eak	-2753
eer	-2754
eon	-2755
ios	-2756
isp	-2757
kan	-2758
lar	-2759
lor	-2760
ois	-2761
rit	-2762
tit	-2763
uli	-2764
wan	-2765
ycl	-2766
▁Aw	-2767
▁Ra	-2768
▁if	-2769
Type	-2770
abit	-2771
aksh	-2772
aled	-2773
anqu	-2774
athi	-2775
bear	-2776
chem	-2777
hold	-2778
hood	-2779
iece	-2780
imit	-2781
init	-2782
itic	-2783
ribe	-2784
rock	-2785
side	-2786
thes	-2787
udes	-2788
udge	-2789
unct	-2790
utor	-2791
▁Gre	-2792
▁Jah	-2793
▁Kam	-2794
▁Kap	-2795
▁Naz	-2796
▁Neg	-2797
▁Pot	-2798
▁Sym	-2799
▁Wal	-2800
▁Wil	-2801
▁abs	-2802
▁any	-2803
▁bur	-2804
▁cam	-2805
▁eff	-2806
▁ens	-2807
▁fix	-2808
▁ing	-2809
▁inn	-2810
▁iso	-2811
▁mag	-2812
▁max	-2813
▁mur	-2814
▁now	-2815
▁pet	-2816
▁rad	-2817
▁run	-2818
▁swe	-2819
▁web	-2820
▁www	-2821
acher	-2822
aling	-2823
astic	-2824
eeper	-2825
entic	-2826
essed	-2827
eters	-2828
iable	-2829
itors	-2830
phone	-2831
space	-2832
uster	-2833
uting	-2834
▁Anti	-2835
▁Good	-2836
▁Half	-2837
▁Magn	-2838
▁dead	-2839
▁desp	-2840
▁file	-2841
▁life	-2842
▁past	-2843
▁pick	-2844
▁poss	-2845
▁snow	-2846
▁suff	-2847
▁summ	-2848
▁trip	-2849
acting	-2850
estion	-2851
ighted	-2852
ipping	-2853
number	-2854
ortion	-2855
rained	-2856
▁Cross	-2857
▁night	-2858
▁single	-2859
16	-2860
CS	-2861
DB	-2862
Qu	-2863
sa	-2864
▁න	-2865
ANG	-2866
AST	-2867
amn	-2868
aux	-2869
gen	-2870
hoo	-2871
iat	-2872
iny	-2873
itr	-2874
lem	-2875
mit	-2876
obe	-2877
obs	-2878
oda	-2879
olf	-2880
orp	-2881
sto	-2882
uda	-2883
▁CD	-2884
▁CP	-2885
▁Hu	-2886
▁KP	-2887
▁SE	-2888
▁SM	-2889
▁To	-2890
Name	-2891
angs	-2892
anta	-2893
atts	-2894
boro	-2895
ceed	-2896
ches	-2897
dale	-2898
elli	-2899
eyou	-2900
fire	-2901
illo	-2902
inks	-2903
iron	-2904
king	-2905
late	-2906
more	-2907
oise	-2908
omen	-2909
ooks	-2910
oper	-2911
ople	-2912
osph	-2913
oves	-2914
quot	-2915
ruct	-2916
tech	-2917
ucks	-2918
west	-2919
wind	-2920
▁Ach	-2921
▁Ath	-2922
▁Bab	-2923
▁Bah	-2924
▁Ban	-2925
▁Bul	-2926
▁Env	-2927
▁Est	-2928
▁Eth	-2929
▁Fin	-2930
▁Hom	-2931
▁Imp	-2932
▁Jay	-2933
▁Kan	-2934
▁Lev	-2935
▁Meh	-2936
▁Mes	-2937
▁Nic	-2938
▁One	-2939
▁Pad	-2940
▁Riv	-2941
▁Sin	-2942
▁Tah	-2943
▁Tir	-2944
▁Vir	-2945
▁bas	-2946
▁bet	-2947
▁dig	-2948
▁don	-2949
▁exh	-2950
▁fur	-2951
▁sun	-2952
▁tem	-2953
▁ver	-2954
aches	-2955
aping	-2956
attle	-2957
eland	-2958
enter	-2959
entry	-2960
estig	-2961
idget	-2962
orted	-2963
overs	-2964
sters	-2965
using	-2966
▁Band	-2967
▁Cond	-2968
▁Fair	-2969
▁Full	-2970
▁Inst	-2971
▁Mang	-2972
▁Mess	-2973
▁Rest	-2974
▁Summ	-2975
▁Vill	-2976
▁Wall	-2977
▁dark	-2978
▁hair	-2979
▁poll	-2980
▁prec	-2981
▁soft	-2982
ective	-2983
enders	-2984
headed	-2985
isting	-2986
lessly	-2987
master	-2988
unning	-2989
▁Class	-2990
▁child	-2991
▁press	-2992
▁watch	-2993
agement	-2994
hearted	-2995
▁Double	-2996
▁direct	-2997
▁second	-2998
position	-2999
AU	-3000
CI	-3001
CT	-3002
DS	-3003
PG	-3004
QU	-3005
To	-3006
ru	-3007
ti	-3008
ANT	-3009
ARY	-3010
ASS	-3011
ECT	-3012
OOD	-3013
ees	-3014
eys	-3015
iki	-3016
itu	-3017
iya	-3018
ker	-3019
log	-3020
obo	-3021
olt	-3022
umn	-3023
was	-3024
▁BL	-3025
▁Bu	-3026
▁Do	-3027
▁Ky	-3028
▁SL	-3029
▁Su	-3030
▁US	-3031
▁gh	-3032
▁kh	-3033
File	-3034
Time	-3035
ague	-3036
aths	-3037
cast	-3038
eeds	-3039
hole	-3040
icle	-3041
istr	-3042
itan	-3043
know	-3044
lace	-3045
pass	-3046
quis	-3047
rowd	-3048
umps	-3049
▁Bay	-3050
▁Ell	-3051
▁Ent	-3052
▁Gda	-3053
▁Hum	-3054
▁Inf	-3055
▁Kas	-3056
▁Lor	-3057
▁Mos	-3058
▁Nah	-3059
▁Nam	-3060
▁Nov	-3061
▁Pen	-3062
▁Rom	-3063
▁Sad	-3064
▁Tel	-3065
▁Vel	-3066
▁ber	-3067
▁day	-3068
▁god	-3069
▁hol	-3070
▁hur	-3071
▁lab	-3072
▁lay	-3073
▁lik	-3074
▁mad	-3075
▁mel	-3076
▁mer	-3077
▁mut	-3078
▁pri	-3079
▁shr	-3080
acity	-3081
amine	-3082
aught	-3083
bound	-3084
click	-3085
endar	-3086
files	-3087
iance	-3088
ience	-3089
ipper	-3090
ittle	-3091
lings	-3092
night	-3093
oking	-3094
oning	-3095
▁Auth	-3096
▁Call	-3097
▁Camp	-3098
▁Head	-3099
▁Left	-3100
▁Matt	-3101
▁Merc	-3102
▁Rock	-3103
▁Shah	-3104
▁Shar	-3105
▁cart	-3106
▁comb	-3107
▁fish	-3108
▁jack	-3109
▁keep	-3110
▁mind	-3111
▁mort	-3112
▁port	-3113
▁wild	-3114
▁year	-3115
arting	-3116
encing	-3117
eption	-3118
formed	-3119
friend	-3120
icious	-3121
inging	-3122
mental	-3123
rowing	-3124
unting	-3125
upport	-3126
▁Check	-3127
▁Grand	-3128
▁build	-3129
▁contr	-3130
▁green	-3131
▁sweet	-3132
fulness	-3133
ination	-3134
▁LightS	-3135
election	-3136
irection	-3137
FS	-3138
GB	-3139
IE	-3140
Up	-3141
bi	-3142
du	-3143
mn	-3144
pp	-3145
zi	-3146
ART	-3147
HER	-3148
ICE	-3149
ICK	-3150
ILE	-3151
agr	-3152
car	-3153
ego	-3154
has	-3155
iev	-3156
igu	-3157
irs	-3158
isa	-3159
map	-3160
sen	-3161
sur	-3162
uba	-3163
wal	-3164
▁AT	-3165
▁BE	-3166
▁Ca	-3167
▁Gd	-3168
▁Os	-3169
▁PF	-3170
▁Pa	-3171
▁So	-3172
▁ha	-3173
▁py	-3174
Base	-3175
acro	-3176
akan	-3177
alle	-3178
amba	-3179
anes	-3180
anny	-3181
bird	-3182
bury	-3183
cing	-3184
cons	-3185
edia	-3186
eres	-3187
eted	-3188
iced	-3189
iche	-3190
idth	-3191
inct	-3192
inda	-3193
inth	-3194
ista	-3195
itty	-3196
made	-3197
odec	-3198
odes	-3199
okes	-3200
onym	-3201
oods	-3202
opol	-3203
pose	-3204
text	-3205
ustr	-3206
▁Bad	-3207
▁Esp	-3208
▁Exc	-3209
▁Far	-3210
▁Gil	-3211
▁Gun	-3212
▁INT	-3213
▁Ill	-3214
▁Kab	-3215
▁Mol	-3216
▁Nag	-3217
▁Pri	-3218
▁Put	-3219
▁Tal	-3220
▁Thr	-3221
▁Tra	-3222
▁Tre	-3223
▁Van	-3224
▁Ven	-3225
▁adm	-3226
▁bec	-3227
▁bio	-3228
▁bul	-3229
▁bus	-3230
▁cos	-3231
▁fac	-3232
▁fly	-3233
▁hyd	-3234
▁ide	-3235
▁kil	-3236
▁rot	-3237
▁set	-3238
▁tab	-3239
▁tar	-3240
aning	-3241
anned	-3242
block	-3243
digit	-3244
elebr	-3245
ename	-3246
fight	-3247
ialog	-3248
itten	-3249
ollow	-3250
oting	-3251
otted	-3252
ounce	-3253
thing	-3254
usted	-3255
wards	-3256
▁Alex	-3257
▁Baal	-3258
▁Barb	-3259
▁Conc	-3260
▁Mail	-3261
▁Mass	-3262
▁Mill	-3263
▁Path	-3264
▁Sham	-3265
▁Sign	-3266
▁Text	-3267
▁help	-3268
▁intr	-3269
▁left	-3270
▁mill	-3271
▁news	-3272
▁path	-3273
▁talk	-3274
agging	-3275
ancing	-3276
anking	-3277
arding	-3278
atives	-3279
change	-3280
ention	-3281
ighter	-3282
minded	-3283
umping	-3284
▁Const	-3285
▁Hyper	-3286
▁Right	-3287
▁Short	-3288
▁autom	-3289
▁speed	-3290
ocation	-3291
process	-3292
through	-3293
uration	-3294
▁twenty	-3295
▁command	-3296
-6	-3297
.3	-3298
DA	-3299
IX	-3300
NC	-3301
NG	-3302
OB	-3303
TP	-3304
bs	-3305
gy	-3306
þi	-3307
▁ග	-3308
AIL	-3309
DER	-3310
EAD	-3311
INE	-3312
IVE	-3313
PER	-3314
VER	-3315
aco	-3316
aks	-3317
bon	-3318
bur	-3319
eat	-3320
ede	-3321
eem	-3322
enu	-3323
igs	-3324
isf	-3325
lov	-3326
low	-3327
nan	-3328
oro	-3329
uid	-3330
upt	-3331
uru	-3332
vin	-3333
vis	-3334
▁DR	-3335
▁Eg	-3336
▁Fa	-3337
▁Ly	-3338
▁MD	-3339
▁MP	-3340
▁Ow	-3341
▁Um	-3342
▁Ut	-3343
▁bu	-3344
▁by	-3345
▁es	-3346
▁ps	-3347
▁rh	-3348
-125	-3349
Cont	-3350
Tool	-3351
addy	-3352
airs	-3353
apol	-3354
aris	-3355
atri	-3356
burn	-3357
card	-3358
duct	-3359
eler	-3360
elly	-3361
etta	-3362
icon	-3363
igan	-3364
iger	-3365
ijah	-3366
ivil	-3367
lesh	-3368
life	-3369
obil	-3370
oons	-3371
oses	-3372
osis	-3373
oven	-3374
rove	-3375
stad	-3376
ugin	-3377
ween	-3378
wick	-3379
▁Bon	-3380
▁Cub	-3381
▁Dam	-3382
▁Eng	-3383
▁Hen	-3384
▁Maj	-3385
▁Neb	-3386
▁Ped	-3387
▁Pin	-3388
▁Rat	-3389
▁Reb	-3390
▁Rub	-3391
▁bed	-3392
▁ben	-3393
▁hor	-3394
▁ign	-3395
▁old	-3396
▁pal	-3397
▁ped	-3398
▁sac	-3399
▁san	-3400
▁sex	-3401
▁ste	-3402
▁tre	-3403
anged	-3404
annel	-3405
class	-3406
enses	-3407
ereth	-3408
esses	-3409
iolet	-3410
oding	-3411
ogram	-3412
oment	-3413
ports	-3414
storm	-3415
▁Cart	-3416
▁Cass	-3417
▁Circ	-3418
▁Coll	-3419
▁Ctrl	-3420
▁Fred	-3421
▁Shim	-3422
▁Well	-3423
▁card	-3424
▁cell	-3425
▁draw	-3426
▁fact	-3427
▁hors	-3428
▁host	-3429
▁imag	-3430
▁lock	-3431
▁miss	-3432
▁sent	-3433
▁ster	-3434
▁them	-3435
▁wait	-3436
config	-3437
ersion	-3438
ertain	-3439
ground	-3440
handed	-3441
idence	-3442
inding	-3443
othing	-3444
resses	-3445
▁Gener	-3446
▁South	-3447
▁color	-3448
▁const	-3449
▁dream	-3450
▁impro	-3451
▁print	-3452
▁stock	-3453
itional	-3454
▁Medium	-3455
▁disapp	-3456
oldenrod	-3457
ulations	-3458
plication	-3459
-5	-3460
-9	-3461
23	-3462
AX	-3463
IA	-3464
LY	-3465
QL	-3466
TR	-3467
hu	-3468
po	-3469
py	-3470
én	-3471
යි	-3472
▁ව	-3473
ANS	-3474
BIN	-3475
Box	-3476
ORE	-3477
OUS	-3478
Pro	-3479
acu	-3480
ael	-3481
aha	-3482
aws	-3483
aza	-3484
chi	-3485
een	-3486
get	-3487
iba	-3488
igo	-3489
lah	-3490
lan	-3491
pen	-3492
ror	-3493
tan	-3494
ueb	-3495
ulu	-3496
▁Da	-3497
▁GN	-3498
▁KB	-3499
▁Ku	-3500
▁PL	-3501
▁Ty	-3502
▁ox	-3503
DIST	-3504
acle	-3505
alog	-3506
andy	-3507
anti	-3508
appy	-3509
araj	-3510
aria	-3511
arts	-3512
cher	-3513
chid	-3514
ergy	-3515
erty	-3516
heim	-3517
iler	-3518
ivid	-3519
keys	-3520
ktop	-3521
ocus	-3522
oday	-3523
oker	-3524
oler	-3525
ongs	-3526
opes	-3527
oung	-3528
pace	-3529
ploy	-3530
post	-3531
real	-3532
rost	-3533
shit	-3534
then	-3535
unts	-3536
ynam	-3537
▁Air	-3538
▁Boo	-3539
▁Dat	-3540
▁Der	-3541
▁Dom	-3542
▁Dub	-3543
▁Ele	-3544
▁Esc	-3545
▁Gor	-3546
▁IBM	-3547
▁Ign	-3548
▁Jam	-3549
▁Lab	-3550
▁Lim	-3551
▁Low	-3552
▁Nep	-3553
▁Nor	-3554
▁Rod	-3555
▁Rot	-3556
▁Seg	-3557
▁Sha	-3558
▁Six	-3559
▁Spl	-3560
▁Sud	-3561
▁Sum	-3562
▁Tem	-3563
▁Two	-3564
▁Var	-3565
▁Zeb	-3566
▁act	-3567
▁ask	-3568
▁big	-3569
▁bug	-3570
▁dat	-3571
▁lov	-3572
▁nan	-3573
▁sid	-3574
▁tax	-3575
▁vir	-3576
abled	-3577
antic	-3578
arbon	-3579
arily	-3580
claim	-3581
eight	-3582
enced	-3583
erver	-3584
icate	-3585
inary	-3586
inner	-3587
istle	-3588
lying	-3589
opped	-3590
oured	-3591
ourse	-3592
proof	-3593
quire	-3594
scale	-3595
sized	-3596
stick	-3597
ucker	-3598
unner	-3599
usive	-3600
▁Bell	-3601
▁Brit	-3602
▁Card	-3603
▁Cast	-3604
▁Cong	-3605
▁Corn	-3606
▁East	-3607
▁Euro	-3608
▁Fram	-3609
▁Lang	-3610
▁Miss	-3611
▁Pale	-3612
▁Read	-3613
▁Sang	-3614
▁Shel	-3615
▁Stat	-3616
▁Sund	-3617
▁Test	-3618
▁Turn	-3619
▁Wild	-3620
▁buff	-3621
▁bull	-3622
▁capt	-3623
▁conn	-3624
▁cost	-3625
▁cred	-3626
▁dece	-3627
▁free	-3628
▁hold	-3629
▁oper	-3630
▁pain	-3631
▁rock	-3632
▁sing	-3633
▁stud	-3634
▁vari	-3635
▁will	-3636
atched	-3637
eeping	-3638
inders	-3639
orting	-3640
resent	-3641
screen	-3642
struct	-3643
uction	-3644
ughter	-3645
ulates	-3646
▁Elect	-3647
▁Franc	-3648
▁Green	-3649
▁Micro	-3650
▁Water	-3651
▁money	-3652
▁neigh	-3653
▁neuro	-3654
▁seven	-3655
▁therm	-3656
-8859-1	-3657
alities	-3658
ections	-3659
plement	-3660
▁search	-3661
▁program	-3662
ifications	-3663
CP	-3664
DE	-3665
DF	-3666
It	-3667
KE	-3668
On	-3669
RS	-3670
RY	-3671
dy	-3672
hy	-3673
je	-3674
rc	-3675
és	-3676
▁ක	-3677
AGE	-3678
Mar	-3679
OLL	-3680
ONE	-3681
aud	-3682
avy	-3683
bad	-3684
bag	-3685
ban	-3686
cha	-3687
dom	-3688
emi	-3689
fix	-3690
hav	-3691
iga	-3692
lam	-3693
mod	-3694
oat	-3695
oen	-3696
olo	-3697
pre	-3698
uke	-3699
ukh	-3700
won	-3701
xml	-3702
yam	-3703
▁IC	-3704
▁Ju	-3705
▁KW	-3706
▁Mu	-3707
▁Ts	-3708
▁Uh	-3709
▁Zh	-3710
▁et	-3711
▁ri	-3712
Down	-3713
Pink	-3714
ador	-3715
agen	-3716
alli	-3717
anel	-3718
apes	-3719
apor	-3720
bing	-3721
conn	-3722
date	-3723
elet	-3724
elon	-3725
enna	-3726
eper	-3727
erve	-3728
iang	-3729
iary	-3730
ibly	-3731
iful	-3732
igen	-3733
imum	-3734
irth	-3735
itis	-3736
itle	-3737
jack	-3738
miss	-3739
oice	-3740
olly	-3741
oner	-3742
part	-3743
pled	-3744
quer	-3745
reck	-3746
rest	-3747
uits	-3748
ults	-3749
unny	-3750
user	-3751
yber	-3752
ytes	-3753
zero	-3754
▁Any	-3755
▁Bil	-3756
▁Bit	-3757
▁Day	-3758
▁Dun	-3759
▁Fur	-3760
▁Haw	-3761
▁Hyp	-3762
▁Ith	-3763
▁Jac	-3764
▁KDE	-3765
▁Ker	-3766
▁Kor	-3767
▁Lou	-3768
▁Nan	-3769
▁Nap	-3770
▁Now	-3771
▁Occ	-3772
▁Pir	-3773
▁Ple	-3774
▁Shr	-3775
▁Sir	-3776
▁Sun	-3777
▁Ten	-3778
▁Tom	-3779
▁Uns	-3780
▁War	-3781
▁Win	-3782
▁aud	-3783
▁bab	-3784
▁bef	-3785
▁bes	-3786
▁ble	-3787
▁cas	-3788
▁did	-3789
▁dom	-3790
▁dup	-3791
▁eth	-3792
▁fig	-3793
▁fle	-3794
▁gun	-3795
▁may	-3796
▁meg	-3797
▁mes	-3798
▁rip	-3799
▁sed	-3800
▁son	-3801
▁typ	-3802
▁was	-3803
▁wid	-3804
agger	-3805
aired	-3806
anges	-3807
arded	-3808
armed	-3809
asted	-3810
atted	-3811
aurus	-3812
ecess	-3813
eeing	-3814
icing	-3815
ilter	-3816
inity	-3817
ither	-3818
oever	-3819
ollar	-3820
olved	-3821
omple	-3822
ormat	-3823
osing	-3824
pling	-3825
scrip	-3826
would	-3827
▁Bang	-3828
▁Brow	-3829
▁Clar	-3830
▁Dest	-3831
▁Gold	-3832
▁Hash	-3833
▁Herm	-3834
▁Look	-3835
▁Math	-3836
▁Mith	-3837
▁Palm	-3838
▁Pers	-3839
▁Soft	-3840
▁They	-3841
▁Wait	-3842
▁Whit	-3843
▁band	-3844
▁bomb	-3845
▁boot	-3846
▁camp	-3847
▁conj	-3848
▁diff	-3849
▁insp	-3850
▁less	-3851
▁line	-3852
▁mass	-3853
▁mini	-3854
▁misc	-3855
▁near	-3856
▁outs	-3857
▁page	-3858
▁radi	-3859
▁rain	-3860
▁sick	-3861
▁surv	-3862
▁susp	-3863
▁trav	-3864
▁viol	-3865
▁week	-3866
active	-3867
anning	-3868
athers	-3869
bridge	-3870
ectors	-3871
enburg	-3872
ership	-3873
itters	-3874
making	-3875
opping	-3876
orient	-3877
produc	-3878
server	-3879
ulator	-3880
▁block	-3881
▁cover	-3882
▁every	-3883
▁great	-3884
▁honey	-3885
▁hyper	-3886
▁north	-3887
▁pleas	-3888
▁recon	-3889
▁small	-3890
▁start	-3891
▁there	-3892
▁world	-3893
actions	-3894
control	-3895
ference	-3896
fucking	-3897
ication	-3898
lection	-3899
▁Direct	-3900
▁butter	-3901
▁circum	-3902
▁govern	-3903
▁master	-3904
▁mother	-3905
▁person	-3906
▁school	-3907
▁thirty	-3908
breaking	-3909
-0	-3910
AW	-3911
IO	-3912
MS	-3913
SA	-3914
UE	-3915
VD	-3916
gi	-3917
iu	-3918
zy	-3919
ér	-3920
ín	-3921
▁ද	-3922
-20	-3923
ACK	-3924
ALE	-3925
ARE	-3926
Col	-3927
Cor	-3928
For	-3929
ISH	-3930
Off	-3931
abi	-3932
afe	-3933
ahh	-3934
aiy	-3935
aji	-3936
bsp	-3937
cal	-3938
che	-3939
emo	-3940
fly	-3941
imo	-3942
iod	-3943
iva	-3944
iza	-3945
las	-3946
lig	-3947
lon	-3948
loy	-3949
nah	-3950
oct	-3951
olk	-3952
ooo	-3953
pir	-3954
rat	-3955
sha	-3956
ubl	-3957
udo	-3958
uge	-3959
wer	-3960
who	-3961
▁AB	-3962
▁Ez	-3963
▁FR	-3964
▁Ho	-3965
▁JB	-3966
▁KR	-3967
▁KT	-3968
▁MS	-3969
▁Om	-3970
▁Ya	-3971
▁ol	-3972
NORM	-3973
OUNT	-3974
Size	-3975
Test	-3976
ando	-3977
andu	-3978
anim	-3979
apon	-3980
auth	-3981
ayan	-3982
bach	-3983
emin	-3984
enny	-3985
eral	-3986
erts	-3987
hour	-3988
mith	-3989
onom	-3990
rict	-3991
rupt	-3992
teen	-3993
tell	-3994
ucky	-3995
ulus	-3996
umes	-3997
ummy	-3998
when	-3999
xref	-4000
▁Adv	-4001
▁Aud	-4002
▁Big	-4003
▁Boy	-4004
▁Dol	-4005
▁Dup	-4006
▁Dur	-4007
▁Has	-4008
▁Hur	-4009
▁Jal	-4010
▁Kaz	-4011
▁Mut	-4012
▁Nev	-4013
▁Pap	-4014
▁Pay	-4015
▁Pul	-4016
▁Pun	-4017
▁Ray	-4018
▁Sib	-4019
▁Sky	-4020
▁Sus	-4021
▁Tok	-4022
▁UTF	-4023
▁Und	-4024
▁Whe	-4025
▁aqu	-4026
▁bor	-4027
▁far	-4028
▁fat	-4029
▁hal	-4030
▁joy	-4031
▁mat	-4032
▁mov	-4033
▁nut	-4034
▁our	-4035
▁pap	-4036
▁tom	-4037
▁tur	-4038
▁unw	-4039
acted	-4040
agers	-4041
alist	-4042
andom	-4043
anked	-4044
athan	-4045
erted	-4046
erton	-4047
graph	-4048
icals	-4049
icted	-4050
iders	-4051
ients	-4052
ilder	-4053
ishon	-4054
istan	-4055
istor	-4056
label	-4057
layer	-4058
ledge	-4059
onent	-4060
ority	-4061
otion	-4062
these	-4063
ucked	-4064
uckle	-4065
uffle	-4066
umped	-4067
where	-4068
woman	-4069
▁Calc	-4070
▁Cant	-4071
▁Comb	-4072
▁File	-4073
▁Gang	-4074
▁Host	-4075
▁Init	-4076
▁Lind	-4077
▁Lock	-4078
▁Mall	-4079
▁Meta	-4080
▁Pred	-4081
▁Real	-4082
▁Sant	-4083
▁Snow	-4084
▁Time	-4085
▁User	-4086
▁acqu	-4087
▁best	-4088
▁burn	-4089
▁cand	-4090
▁cook	-4091
▁gold	-4092
▁impl	-4093
▁incl	-4094
▁load	-4095
▁love	-4096
▁mail	-4097
▁nine	-4098
▁pack	-4099
▁perm	-4100
▁phys	-4101
▁pret	-4102
▁push	-4103
▁repl	-4104
▁tatt	-4105
▁tick	-4106
▁wear	-4107
alking	-4108
ashion	-4109
atches	-4110
ealing	-4111
econds	-4112
endent	-4113
ouring	-4114
parent	-4115
ugging	-4116
undred	-4117
usting	-4118
ything	-4119
▁Gnome	-4120
▁Night	-4121
▁Psych	-4122
▁Where	-4123
▁appro	-4124
▁colon	-4125
▁compl	-4126
▁conce	-4127
▁front	-4128
▁human	-4129
▁journ	-4130
▁milit	-4131
▁plant	-4132
athites	-4133
▁observ	-4134
▁screen	-4135
▁simple	-4136
▁strong	-4137
ribution	-4138
▁Counter	-4139
stitution	-4140
.5	-4141
CL	-4142
DR	-4143
IZ	-4144
Is	-4145
MA	-4146
NA	-4147
TY	-4148
Un	-4149
cy	-4150
vi	-4151
ès	-4152
ෙන	-4153
▁Ö	-4154
▁ත	-4155
▁ම	-4156
ARS	-4157
ATH	-4158
END	-4159
ERN	-4160
IME	-4161
ORN	-4162
aft	-4163
dal	-4164
eff	-4165
eli	-4166
enh	-4167
eny	-4168
ews	-4169
hem	-4170
hot	-4171
hum	-4172
icy	-4173
iot	-4174
mmm	-4175
nik	-4176
oba	-4177
occ	-4178
oga	-4179
oug	-4180
pan	-4181
rea	-4182
ris	-4183
run	-4184
tha	-4185
uce	-4186
ugu	-4187
ulp	-4188
van	-4189
▁DO	-4190
▁Du	-4191
▁Gy	-4192
▁Ib	-4193
▁Kl	-4194
▁Ko	-4195
▁Ni	-4196
▁OR	-4197
▁Ox	-4198
▁Wa	-4199
▁ah	-4200
▁lf	-4201
▁ou	-4202
▁wa	-4203
Gray	-4204
abol	-4205
achi	-4206
adan	-4207
alah	-4208
aned	-4209
apur	-4210
arse	-4211
asha	-4212
aton	-4213
body	-4214
edge	-4215
eech	-4216
eget	-4217
emen	-4218
empt	-4219
ente	-4220
eric	-4221
esis	-4222
fall	-4223
fast	-4224
iant	-4225
idal	-4226
ieve	-4227
inet	-4228
inky	-4229
isha	-4230
lear	-4231
mode	-4232
nine	-4233
ocal	-4234
ocon	-4235
offs	-4236
olve	-4237
ourg	-4238
pack	-4239
reed	-4240
rick	-4241
ront	-4242
ruit	-4243
shan	-4244
umbn	-4245
umed	-4246
unes	-4247
unge	-4248
urop	-4249
want	-4250
wear	-4251
▁Abb	-4252
▁Aff	-4253
▁Arm	-4254
▁Asc	-4255
▁Beg	-4256
▁Bet	-4257
▁Bra	-4258
▁Bus	-4259
▁Cos	-4260
▁Dig	-4261
▁Dor	-4262
▁Dum	-4263
▁Ess	-4264
▁Gam	-4265
▁Gur	-4266
▁Hop	-4267
▁Jar	-4268
▁Kil	-4269
▁Kin	-4270
▁Kun	-4271
▁Leb	-4272
▁Meg	-4273
▁Mul	-4274
▁Nob	-4275
▁Pos	-4276
▁Reh	-4277
▁Tak	-4278
▁Wol	-4279
▁Zer	-4280
▁bal	-4281
▁ban	-4282
▁buy	-4283
▁cow	-4284
▁cro	-4285
▁fer	-4286
▁let	-4287
▁mix	-4288
▁pix	-4289
▁sen	-4290
▁tor	-4291
▁tub	-4292
▁way	-4293
Group	-4294
amber	-4295
amper	-4296
aniah	-4297
anner	-4298
assed	-4299
avers	-4300
eared	-4301
ensed	-4302
eries	-4303
faced	-4304
iated	-4305
icles	-4306
ictor	-4307
iform	-4308
igger	-4309
jects	-4310
lined	-4311
owned	-4312
power	-4313
roduc	-4314
ropri	-4315
stein	-4316
trans	-4317
ugged	-4318
umble	-4319
ustri	-4320
▁Alph	-4321
▁Audi	-4322
▁Ball	-4323
▁Bart	-4324
▁Bern	-4325
▁Book	-4326
▁Bull	-4327
▁Burn	-4328
▁Chap	-4329
▁Desc	-4330
▁Free	-4331
▁Gall	-4332
▁Jack	-4333
▁Prof	-4334
▁Prot	-4335
▁Rain	-4336
▁Rich	-4337
▁Sent	-4338
▁Shiv	-4339
▁Sing	-4340
▁Spir	-4341
▁Terr	-4342
▁View	-4343
▁Will	-4344
▁bank	-4345
▁craz	-4346
▁deep	-4347
▁entr	-4348
▁fell	-4349
▁fund	-4350
▁grav	-4351
▁kind	-4352
▁liqu	-4353
▁merc	-4354
▁perv	-4355
▁pill	-4356
▁roll	-4357
▁sand	-4358
▁sett	-4359
▁side	-4360
▁spir	-4361
▁subt	-4362
▁task	-4363
▁ther	-4364
▁wall	-4365
▁wood	-4366
▁yout	-4367
▁zero	-4368
athite	-4369
erting	-4370
essing	-4371
father	-4372
istent	-4373
istics	-4374
omatic	-4375
outing	-4376
pected	-4377
ribute	-4378
rypted	-4379
▁Break	-4380
▁DarkS	-4381
▁Group	-4382
▁Print	-4383
▁Stand	-4384
▁beaut	-4385
▁broad	-4386
▁ident	-4387
▁imper	-4388
▁index	-4389
▁mouth	-4390
▁overt	-4391
▁spect	-4392
▁third	-4393
▁where	-4394
▁white	-4395
▁would	-4396
anguage	-4397
itching	-4398
raining	-4399
▁Access	-4400
▁Browse	-4401
▁Spring	-4402
▁Transl	-4403
▁differ	-4404
▁should	-4405
▁transl	-4406
▁thunder	-4407
.4	-4408
26	-4409
30	-4410
BL	-4411
DL	-4412
Kg	-4413
MM	-4414
MP	-4415
PA	-4416
Ph	-4417
SC	-4418
SP	-4419
SS	-4420
UD	-4421
UP	-4422
di	-4423
ds	-4424
kg	-4425
nu	-4426
vy	-4427
wd	-4428
wo	-4429
▁ප	-4430
ACE	-4431
ERR	-4432
IAL	-4433
IES	-4434
IND	-4435
ITY	-4436
ONG	-4437
OOK	-4438
OWN	-4439
Res	-4440
TER	-4441
UCK	-4442
USH	-4443
acs	-4444
ben	-4445
cam	-4446
col	-4447
eas	-4448
emn	-4449
emy	-4450
exp	-4451
eye	-4452
gal	-4453
gin	-4454
iac	-4455
ibe	-4456
ibl	-4457
ido	-4458
inv	-4459
isl	-4460
jan	-4461
kay	-4462
pes	-4463
pet	-4464
reh	-4465
rin	-4466
rys	-4467
san	-4468
ten	-4469
uah	-4470
uku	-4471
yer	-4472
▁Aj	-4473
▁DE	-4474
▁GT	-4475
▁HE	-4476
▁IR	-4477
▁Iz	-4478
▁Mb	-4479
▁Mm	-4480
▁Od	-4481
▁UR	-4482
▁bh	-4483
▁da	-4484
▁fa	-4485
▁ju	-4486
▁kd	-4487
▁ma	-4488
▁mm	-4489
▁mo	-4490
▁ul	-4491
▁um	-4492
▁yö	-4493
Mail	-4494
Sync	-4495
abar	-4496
acer	-4497
akis	-4498
alam	-4499
amps	-4500
asis	-4501
ateg	-4502
atin	-4503
atty	-4504
atus	-4505
blem	-4506
bler	-4507
cept	-4508
eleg	-4509
enge	-4510
enta	-4511
esto	-4512
etti	-4513
hard	-4514
icer	-4515
igor	-4516
ilar	-4517
ilia	-4518
iman	-4519
ipur	-4520
ithm	-4521
left	-4522
obby	-4523
odet	-4524
omer	-4525
onna	-4526
oted	-4527
oyal	-4528
rike	-4529
roke	-4530
rome	-4531
rypt	-4532
syst	-4533
term	-4534
uded	-4535
wait	-4536
wing	-4537
yard	-4538
▁Ale	-4539
▁Ari	-4540
▁Bag	-4541
▁Bow	-4542
▁COL	-4543
▁Cad	-4544
▁Cot	-4545
▁Cro	-4546
▁Dav	-4547
▁Dim	-4548
▁Eff	-4549
▁Get	-4550
▁Hav	-4551
▁Hay	-4552
▁Hod	-4553
▁Jab	-4554
▁Jos	-4555
▁Kad	-4556
▁Kel	-4557
▁Kom	-4558
▁Kur	-4559
▁Lak	-4560
▁Lav	-4561
▁Maz	-4562
▁Mic	-4563
▁Mov	-4564
▁Old	-4565
▁Pak	-4566
▁Pas	-4567
▁Pic	-4568
▁Por	-4569
▁Que	-4570
▁Rah	-4571
▁Sac	-4572
▁Sah	-4573
▁Scr	-4574
▁Sev	-4575
▁Sid	-4576
▁Sig	-4577
▁Son	-4578
▁Tob	-4579
▁adj	-4580
▁agg	-4581
▁alt	-4582
▁ans	-4583
▁bon	-4584
▁bow	-4585
▁cup	-4586
▁gro	-4587
▁hop	-4588
▁kde	-4589
▁kid	-4590
▁lad	-4591
▁maj	-4592
▁mir	-4593
▁pac	-4594
▁pic	-4595
▁put	-4596
▁saw	-4597
▁say	-4598
▁sev	-4599
▁sin	-4600
White	-4601
apper	-4602
asher	-4603
ayers	-4604
charg	-4605
count	-4606
elech	-4607
ental	-4608
eward	-4609
frame	-4610
gener	-4611
grind	-4612
▁	-4613
e	-4614
a	-4615
i	-4616
n	-4617
r	-4618
o	-4619
t	-4620
s	-4621
l	-4622
d	-4623
u	-4624
c	-4625
h	-4626
m	-4627
g	-4628
p	-4629
-	-4630
b	-4631
y	-4632
k	-4633
f	-4634
S	-4635
v	-4636
w	-4637
A	-4638
C	-4639
M	-4640
T	-4641
R	-4642
P	-4643
E	-4644
B	-4645
D	-4646
I	-4647
L	-4648
N	-4649
G	-4650
H	-4651
O	-4652
z	-4653
K	-4654
x	-4655
F	-4656
.	-4657
W	-4658
j	-4659
U	-4660
V	-4661
J	-4662
q	-4663
Y	-4664
2	-4665
1	-4666
Z	-4667
X	-4668
0	-4669
Q	-4670
3	-4671
4	-4672
5	-4673
&	-4674
;	-4675
8	-4676
é	-4677
9	-4678
6	-4679
7	-4680
á	-4681
í	-4682
න	-4683
ö	-4684
ව	-4685
ි	-4686
ා	-4687
ó	-4688
ä	-4689
ක	-4690
ü	-4691
ත	-4692
ø	-4693
è	-4694
ය	-4695
`	-4696
ග	-4697
ම	-4698
ර	-4699
â	-4700
ෙ	-4701
ã	-4702
ල	-4703
ු	-4704
ñ	-4705
ද	-4706
ë	-4707
þ	-4708
ස	-4709
හ	-4710
Ç	-4711
ට	-4712
ප	-4713
à	-4714
ç	-4715
š	-4716
ú	-4717
ş	-4718
ැ	-4719
ේ	-4720
å	-4721
е	-4722
ā	-4723
ෝ	-4724
É	-4725
Ö	-4726
ô	-4727
č	-4728
ො	-4729
õ	-4730
ă	-4731
බ	-4732
о	-4733
ѕ	-4734
ූ	-4735
,	-4736
Ú	-4737
ß	-4738
ï	-4739
අ	-4740
Å	-4741
È	-4742
ž	-4743
і	-4744
ළ	-4745
ී	-4746
Ð	-4747
æ	-4748
ì	-4749
î	-4750
ð	-4751
ı	-4752
μ	-4753
⁄	-4754
ê	-4755
û	-4756
ė	-4757
Ê	-4758
Î	-4759
Ñ	-4760
Ø	-4761
ţ	-4762
а	-4763
Á	-4764
Ä	-4765
Í	-4766
ò	-4767
ŏ	-4768
ඳ	-4769
Ï	-4770
Ó	-4771
Ý	-4772
ý	-4773
ū	-4774
ං	-4775
ජ	-4776
ණ	-4777
Ô	-4778
Þ	-4779
ğ	-4780
ł	-4781
ń	-4782
ඇ	-4783
ඟ	-4784
ඩ	-4785
Ā	-4786
ē	-4787
ō	-4788
ඔ	-4789
な	-4790
Â	-4791
Ã	-4792
Æ	-4793
Õ	-4794
Ü	-4795
ù	-4796
ī	-4797
Š	-4798
р	-4799
ر	-4800
ඕ	-4801
ෂ	-4802
か	-4803
Ë	-4804
Ì	-4805
Ò	-4806
ÿ	-4807
Č	-4808
ĭ	-4809
ň	-4810
ő	-4811
Ş	-4812
ŭ	-4813
Ž	-4814
ɨ	-4815
α	-4816
ω	-4817
б	-4818
д	-4819
н	-4820
ا	-4821
م	-4822
ی	-4823
ඉ	-4824
උ	-4825
ධ	-4826
ශ	-4827
ෆ	-4828
ෑ	-4829
お	-4830
ち	-4831
の	-4832
み	-4833
ら	-4834
ん	-4835
ラ	-4836
À	-4837
Ù	-4838
Û	-4839
Ă	-4840
ċ	-4841
ę	-4842
ě	-4843
İ	-4844
ļ	-4845
Ł	-4846
Ō	-4847
Ř	-4848
Ś	-4849
Ţ	-4850
ť	-4851
ų	-4852
ź	-4853
ʟ	-4854
Β	-4855
Ε	-4856
Ι	-4857
Μ	-4858
Ν	-4859
Τ	-4860
Χ	-4861
β	-4862
γ	-4863
δ	-4864
ε	-4865
ζ	-4866
θ	-4867
λ	-4868
ξ	-4869
π	-4870
σ	-4871
φ	-4872
А	-4873
Ч	-4874
в	-4875
й	-4876
л	-4877
п	-4878
с	-4879
ё	-4880
ռ	-4881
օ	-4882
ب	-4883
د	-4884
ع	-4885
ن	-4886
ه	-4887
و	-4888
ُ	-4889
ආ	-4890
එ	-4891
ඒ	-4892
ඝ	-4893
ච	-4894
ඬ	-4895
ථ	-4896
භ	-4897
ෘ	-4898
ෞ	-4899
い	-4900
う	-4901
げ	-4902
さ	-4903
じ	-4904
た	-4905
っ	-4906
と	-4907
に	-4908
め	-4909
ゃ	-4910
ょ	-4911
よ	-4912
り	-4913
る	-4914
れ	-4915
を	-4916
゚	-4917
ア	-4918
カ	-4919
キ	-4920
ノ	-4921
メ	-4922
一	-4923
三	-4924
上	-4925
下	-4926
不	-4927
世	-4928
京	-4929
人	-4930
仮	-4931
住	-4932
便	-4933
做	-4934
先	-4935
公	-4936
切	-4937
勇	-4938
営	-4939
国	-4940
地	-4941
坊	-4942
型	-4943
大	-4944
子	-4945
字	-4946
孽	-4947
宅	-4948
宇	-4949
害	-4950
弾	-4951
志	-4952
愛	-4953
我	-4954
戦	-4955
所	-4956
打	-4957
新	-4958
是	-4959
材	-4960
東	-4961
横	-4962
次	-4963
浄	-4964
溜	-4965
漢	-4966
火	-4967
災	-4968
燕	-4969
爆	-4970
瑩	-4971
界	-4972
白	-4973
的	-4974
盆	-4975
碈	-4976
禾	-4977
秒	-4978
第	-4979
羘	-4980
肥	-4981
花	-4982
見	-4983
設	-4984
踊	-4985
踏	-4986
逸	-4987
邱	-4988
部	-4989
醤	-4990
離	-4991
靈	-4992
韆	-4993
魂	-4994
鷓	-4995
黃	-4996
=======
on	-2
ed	-3
▁s	-4
es	-5
en	-6
an	-7
▁c	-8
at	-9
ing	-10
ar	-11
al	-12
▁p	-13
or	-14
is	-15
▁b	-16
re	-17
ti	-18
▁d	-19
▁m	-20
▁t	-21
le	-22
▁f	-23
ro	-24
el	-25
ic	-26
▁h	-27
un	-28
it	-29
▁a	-30
ra	-31
us	-32
▁g	-33
ol	-34
il	-35
▁l	-36
ion	-37
ur	-38
▁w	-39
as	-40
ent	-41
ly	-42
ch	-43
om	-44
▁e	-45
ers	-46
et	-47
ul	-48
▁in	-49
▁n	-50
▁re	-51
ri	-52
ation	-53
ac	-54
ess	-55
ut	-56
am	-57
os	-58
id	-59
ter	-60
ig	-61
▁un	-62
▁o	-63
ab	-64
ec	-65
▁st	-66
ad	-67
ot	-68
em	-69
ir	-70
im	-71
▁r	-72
um	-73
ag	-74
ist	-75
▁v	-76
▁con	-77
ow	-78
and	-79
tion	-80
iv	-81
qu	-82
od	-83
st	-84
ous	-85
ce	-86
▁k	-87
est	-88
▁ch	-89
pp	-90
ant	-91
oc	-92
tic	-93
▁j	-94
ff	-95
ay	-96
▁sh	-97
ver	-98
iz	-99
th	-100
op	-101
ell	-102
▁th	-103
ate	-104
ub	-105
▁ex	-106
ity	-107
uc	-108
all	-109
og	-110
ard	-111
ud	-112
▁pro	-113
ph	-114
ak	-115
▁sp	-116
ated	-117
ted	-118
ans	-119
▁de	-120
▁com	-121
igh	-122
ap	-123
ts	-124
up	-125
ill	-126
end	-127
▁dis	-128
▁co	-129
▁ro	-130
if	-131
ug	-132
ish	-133
ine	-134
ie	-135
av	-136
ens	-137
able	-138
ally	-139
ting	-140
ies	-141
▁an	-142
pl	-143
man	-144
und	-145
▁ar	-146
ib	-147
ear	-148
ack	-149
ip	-150
ors	-151
ve	-152
ee	-153
lo	-154
ain	-155
ment	-156
ath	-157
▁le	-158
ty	-159
▁cl	-160
ey	-161
▁ad	-162
▁ra	-163
▁im	-164
ick	-165
▁sc	-166
ian	-167
ass	-168
▁al	-169
ok	-170
ang	-171
ness	-172
der	-173
led	-174
ism	-175
▁en	-176
ating	-177
sh	-178
ry	-179
ive	-180
▁pre	-181
ew	-182
ely	-183
▁ac	-184
▁bl	-185
ations	-186
▁tr	-187
▁bo	-188
▁fl	-189
ia	-190
te	-191
▁pl	-192
rac	-193
▁for	-194
our	-195
aw	-196
▁y	-197
ling	-198
les	-199
ons	-200
▁se	-201
▁pr	-202
ful	-203
ss	-204
▁wh	-205
▁par	-206
iti	-207
for	-208
ach	-209
per	-210
bo	-211
▁qu	-212
ings	-213
one	-214
▁car	-215
▁mar	-216
ial	-217
ock	-218
old	-219
ov	-220
ight	-221
ind	-222
ure	-223
ik	-224
ber	-225
ust	-226
▁be	-227
ical	-228
ge	-229
cl	-230
age	-231
co	-232
ious	-233
ort	-234
tim	-235
ence	-236
ast	-237
ates	-238
▁sub	-239
▁or	-240
▁per	-241
ary	-242
ide	-243
▁ph	-244
anc	-245
ong	-246
ood	-247
▁he	-248
att	-249
▁sw	-250
ric	-251
▁comp	-252
he	-253
▁res	-254
ton	-255
▁non	-256
ob	-257
row	-258
tions	-259
▁inter	-260
iss	-261
ress	-262
ct	-263
▁over	-264
▁sl	-265
▁ab	-266
▁ind	-267
ign	-268
ugh	-269
ire	-270
own	-271
ists	-272
ized	-273
olog	-274
ins	-275
to	-276
ents	-277
out	-278
ree	-279
▁em	-280
▁fr	-281
▁ri	-282
▁cont	-283
ied	-284
▁am	-285
ne	-286
con	-287
▁ne	-288
ks	-289
air	-290
ance	-291
▁col	-292
elf	-293
▁imp	-294
se	-295
oth	-296
▁te	-297
▁br	-298
ost	-299
▁cor	-300
ash	-301
▁app	-302
ys	-303
rad	-304
less	-305
ail	-306
enti	-307
enc	-308
sp	-309
ory	-310
art	-311
com	-312
▁out	-313
ect	-314
▁tw	-315
▁mon	-316
▁gr	-317
ered	-318
▁man	-319
▁comm	-320
ah	-321
erv	-322
▁lo	-323
ep	-324
ord	-325
ier	-326
ue	-327
als	-328
▁ti	-329
▁cr	-330
app	-331
erm	-332
ern	-333
uck	-334
▁rep	-335
of	-336
ley	-337
ore	-338
▁di	-339
▁gl	-340
▁int	-341
au	-342
ond	-343
yn	-344
▁sch	-345
▁sk	-346
▁bar	-347
az	-348
ged	-349
ite	-350
▁cons	-351
▁self	-352
▁trans	-353
io	-354
ym	-355
ax	-356
▁ins	-357
ram	-358
ll	-359
arm	-360
ven	-361
▁dec	-362
uff	-363
▁pol	-364
ann	-365
▁po	-366
ities	-367
ike	-368
ron	-369
ull	-370
tive	-371
▁ass	-372
eld	-373
▁do	-374
▁ob	-375
ble	-376
ile	-377
▁gra	-378
▁rec	-379
gh	-380
ere	-381
lin	-382
red	-383
ex	-384
▁mo	-385
ater	-386
▁exp	-387
rop	-388
ush	-389
▁sm	-390
ions	-391
▁hal	-392
ingly	-393
ace	-394
ank	-395
ice	-396
ink	-397
ith	-398
res	-399
rim	-400
vel	-401
▁sn	-402
ets	-403
ger	-404
orn	-405
▁des	-406
istic	-407
ition	-408
▁bur	-409
▁inf	-410
eth	-411
ise	-412
ork	-413
▁fo	-414
▁me	-415
▁so	-416
ular	-417
vers	-418
sc	-419
ize	-420
unt	-421
▁to	-422
land	-423
▁inc	-424
ility	-425
ck	-426
pt	-427
amp	-428
rib	-429
son	-430
ix	-431
rid	-432
raph	-433
ically	-434
ual	-435
ement	-436
▁z	-437
enn	-438
way	-439
▁el	-440
ians	-441
▁all	-442
▁bro	-443
ale	-444
its	-445
str	-446
tiv	-447
▁ag	-448
▁pe	-449
▁we	-450
bur	-451
ily	-452
ative	-453
int	-454
ult	-455
atch	-456
▁gre	-457
▁har	-458
▁inv	-459
ization	-460
ett	-461
ild	-462
ille	-463
lect	-464
▁sup	-465
pe	-466
ich	-467
itt	-468
ler	-469
men	-470
ome	-471
ose	-472
▁ir	-473
▁str	-474
▁conf	-475
af	-476
tit	-477
▁ho	-478
ants	-479
ened	-480
ering	-481
▁hy	-482
▁mis	-483
ark	-484
ator	-485
▁tra	-486
▁ref	-487
▁reg	-488
▁rem	-489
yl	-490
ade	-491
▁gu	-492
eter	-493
▁cal	-494
▁del	-495
▁red	-496
▁ste	-497
els	-498
ene	-499
esc	-500
form	-501
ient	-502
▁anti	-503
oy	-504
ipp	-505
oll	-506
ump	-507
upp	-508
ield	-509
▁sal	-510
▁sur	-511
▁ev	-512
atic	-513
▁acc	-514
▁bre	-515
▁cap	-516
▁def	-517
ments	-518
▁under	-519
ats	-520
ner	-521
rom	-522
▁kn	-523
like	-524
▁und	-525
ane	-526
let	-527
▁bra	-528
▁min	-529
▁half	-530
▁hand	-531
▁high	-532
ict	-533
oph	-534
umb	-535
ung	-536
▁cur	-537
▁dep	-538
▁well	-539
ograph	-540
oss	-541
uth	-542
ched	-543
be	-544
ert	-545
ines	-546
ored	-547
ying	-548
▁dem	-549
▁pat	-550
▁sec	-551
izing	-552
ake	-553
are	-554
ret	-555
▁pur	-556
ium	-557
▁ed	-558
ards	-559
▁att	-560
▁new	-561
ening	-562
tered	-563
ational	-564
by	-565
act	-566
duc	-567
eck	-568
inc	-569
lic	-570
ably	-571
ined	-572
▁off	-573
go	-574
lec	-575
umm	-576
▁fe	-577
ures	-578
▁gro	-579
▁her	-580
eness	-581
que	-582
▁go	-583
ches	-584
ouse	-585
▁tri	-586
▁long	-587
sk	-588
sy	-589
ase	-590
ght	-591
vis	-592
ging	-593
ific	-594
ning	-595
tern	-596
▁cro	-597
▁rel	-598
▁dist	-599
unc	-600
▁ret	-601
▁sol	-602
pro	-603
ris	-604
▁er	-605
▁mc	-606
ener	-607
ible	-608
ited	-609
▁ext	-610
▁conc	-611
aus	-612
leg	-613
ott	-614
time	-615
▁dra	-616
▁mus	-617
ality	-618
fully	-619
ously	-620
amm	-621
bed	-622
orm	-623
par	-624
pos	-625
▁ma	-626
▁ent	-627
▁mid	-628
ef	-629
ery	-630
head	-631
▁det	-632
▁pres	-633
tif	-634
ves	-635
▁bel	-636
▁sem	-637
ently	-638
erson	-639
gl	-640
ps	-641
ars	-642
off	-643
ute	-644
▁no	-645
iter	-646
orth	-647
ower	-648
▁mag	-649
▁mal	-650
▁one	-651
ame	-652
hip	-653
jec	-654
ned	-655
ool	-656
▁bu	-657
▁la	-658
ages	-659
ured	-660
▁div	-661
▁met	-662
ville	-663
▁char	-664
zz	-665
▁up	-666
outh	-667
ring	-668
ties	-669
▁mer	-670
▁mor	-671
▁two	-672
ution	-673
▁disc	-674
ft	-675
ont	-676
rel	-677
ude	-678
ved	-679
ound	-680
ream	-681
▁squ	-682
aking	-683
aul	-684
ird	-685
unk	-686
ving	-687
▁ant	-688
▁end	-689
ray	-690
▁aff	-691
▁tre	-692
▁ver	-693
ns	-694
po	-695
eek	-696
▁dr	-697
▁is	-698
▁wr	-699
▁cle	-700
▁mod	-701
▁rev	-702
▁sim	-703
▁the	-704
ished	-705
ively	-706
ination	-707
day	-708
eng	-709
▁flo	-710
▁fre	-711
▁med	-712
▁stra	-713
de	-714
ke	-715
ave	-716
col	-717
ues	-718
▁ap	-719
▁op	-720
wood	-721
▁tur	-722
ather	-723
ified	-724
iously	-725
ability	-726
ev	-727
tr	-728
uh	-729
aff	-730
eep	-731
ges	-732
ics	-733
iet	-734
ips	-735
reg	-736
rup	-737
uss	-738
▁at	-739
back	-740
ency	-741
iber	-742
▁fin	-743
iness	-744
tical	-745
▁hard	-746
tically	-747
bl	-748
me	-749
we	-750
rol	-751
▁id	-752
itch	-753
▁bal	-754
▁gar	-755
▁leg	-756
▁low	-757
▁mul	-758
▁rad	-759
field	-760
bs	-761
cep	-762
med	-763
min	-764
rec	-765
til	-766
▁ge	-767
ward	-768
▁cra	-769
▁cre	-770
▁war	-771
ology	-772
▁coun	-773
▁prof	-774
▁super	-775
ological	-776
fl	-777
add	-778
gan	-779
irc	-780
ked	-781
ots	-782
por	-783
uit	-784
room	-785
▁ber	-786
▁pal	-787
▁soc	-788
▁ter	-789
▁vol	-790
atter	-791
▁spec	-792
▁three	-793
ou	-794
yp	-795
isc	-796
ops	-797
ral	-798
the	-799
king	-800
omin	-801
ural	-802
vent	-803
▁blo	-804
▁equ	-805
▁tro	-806
ances	-807
aster	-808
iting	-809
▁elect	-810
ai	-811
ms	-812
ux	-813
iff	-814
ole	-815
ple	-816
ura	-817
▁ep	-818
ital	-819
ones	-820
pped	-821
▁can	-822
▁dev	-823
▁mil	-824
▁uns	-825
ately	-826
atory	-827
eless	-828
▁post	-829
▁rest	-830
gr	-831
oh	-832
▁i	-833
asc	-834
ody	-835
udd	-836
urs	-837
cess	-838
year	-839
▁aut	-840
▁hom	-841
▁ill	-842
▁val	-843
▁wal	-844
right	-845
▁phil	-846
▁black	-847
ae	-848
oe	-849
gro	-850
ini	-851
ows	-852
rip	-853
uch	-854
cont	-855
eric	-856
ford	-857
▁ear	-858
▁syn	-859
aries	-860
ators	-861
illed	-862
ma	-863
mo	-864
ids	-865
ife	-866
ior	-867
ony	-868
ued	-869
▁as	-870
aced	-871
ides	-872
ract	-873
well	-874
▁air	-875
▁ang	-876
▁bas	-877
▁not	-878
▁sti	-879
▁sym	-880
struc	-881
▁cent	-882
▁expl	-883
▁pers	-884
▁supp	-885
no	-886
ads	-887
fer	-888
ili	-889
itz	-890
rif	-891
rog	-892
▁oc	-893
hand	-894
ried	-895
▁hol	-896
▁swe	-897
house	-898
▁doub	-899
▁form	-900
▁play	-901
▁work	-902
ements	-903
ky	-904
ina	-905
iol	-906
mar	-907
ney	-908
uls	-909
▁af	-910
▁on	-911
ains	-912
cent	-913
ding	-914
ives	-915
over	-916
type	-917
uted	-918
▁arm	-919
▁emb	-920
▁fer	-921
▁fil	-922
▁hum	-923
▁mic	-924
▁sho	-925
▁sil	-926
▁tem	-927
▁ten	-928
antly	-929
▁arch	-930
bb	-931
gg	-932
mon	-933
use	-934
val	-935
ites	-936
oned	-937
sych	-938
ught	-939
▁den	-940
▁exc	-941
▁fur	-942
▁hel	-943
▁hon	-944
▁inh	-945
▁sat	-946
▁ser	-947
▁unf	-948
iment	-949
ining	-950
oring	-951
▁pred	-952
▁sing	-953
▁wood	-954
ishing	-955
ulation	-956
bu	-957
wh	-958
aps	-959
get	-960
mer	-961
omb	-962
ren	-963
yst	-964
▁es	-965
aded	-966
ades	-967
ased	-968
eled	-969
oped	-970
osed	-971
owed	-972
rown	-973
▁but	-974
▁eff	-975
▁eng	-976
▁far	-977
▁mac	-978
▁pri	-979
▁sun	-980
ences	-981
oking	-982
pping	-983
▁circ	-984
▁coll	-985
▁diff	-986
▁disp	-987
▁diss	-988
▁resp	-989
▁rock	-990
tional	-991
ulated	-992
ification	-993
ze	-994
ari	-995
ays	-996
ste	-997
▁av	-998
▁by	-999
berg	-1000
comm	-1001
cons	-1002
ears	-1003
roph	-1004
tics	-1005
▁abs	-1006
▁mat	-1007
▁mem	-1008
▁six	-1009
ended	-1010
ested	-1011
▁head	-1012
▁prop	-1013
▁semi	-1014
ension	-1015
oo	-1016
agn	-1017
den	-1018
iew	-1019
ify	-1020
onn	-1021
ope	-1022
rig	-1023
urb	-1024
zed	-1025
▁my	-1026
comp	-1027
iled	-1028
work	-1029
▁gal	-1030
▁imm	-1031
▁mel	-1032
▁tim	-1033
▁tor	-1034
▁vis	-1035
▁wil	-1036
ained	-1037
ching	-1038
gress	-1039
▁back	-1040
▁four	-1041
▁land	-1042
▁port	-1043
▁prec	-1044
▁will	-1045
▁psych	-1046
▁commun	-1047
br	-1048
kn	-1049
li	-1050
ye	-1051
aid	-1052
amb	-1053
che	-1054
ham	-1055
ias	-1056
rew	-1057
ugg	-1058
unn	-1059
▁rh	-1060
aked	-1061
aker	-1062
ason	-1063
aver	-1064
down	-1065
erst	-1066
line	-1067
osph	-1068
rack	-1069
ways	-1070
▁amb	-1071
▁cow	-1072
▁fac	-1073
▁wor	-1074
ading	-1075
arian	-1076
board	-1077
ublic	-1078
▁camp	-1079
▁cour	-1080
▁ever	-1081
▁hear	-1082
▁mill	-1083
▁subs	-1084
ending	-1085
itting	-1086
tering	-1087
▁cross	-1088
▁gener	-1089
▁water	-1090
do	-1091
fo	-1092
▁'	-1093
ana	-1094
ino	-1095
ury	-1096
▁ke	-1097
▁ol	-1098
akes	-1099
burg	-1100
educ	-1101
ends	-1102
itor	-1103
ters	-1104
uous	-1105
▁bor	-1106
▁cat	-1107
▁fif	-1108
▁fir	-1109
▁fle	-1110
▁lab	-1111
▁ple	-1112
▁tar	-1113
bound	-1114
inger	-1115
uring	-1116
▁ball	-1117
▁down	-1118
▁phot	-1119
▁prot	-1120
▁sens	-1121
▁sign	-1122
itions	-1123
▁grand	-1124
▁multi	-1125
▁short	-1126
▁counter	-1127
aim	-1128
dle	-1129
ils	-1130
pol	-1131
yro	-1132
▁aw	-1133
▁je	-1134
▁ve	-1135
ared	-1136
ases	-1137
ball	-1138
eral	-1139
irty	-1140
ised	-1141
ises	-1142
ours	-1143
▁bed	-1144
▁hyp	-1145
▁law	-1146
▁men	-1147
▁occ	-1148
▁pun	-1149
ature	-1150
cover	-1151
ected	-1152
ented	-1153
inter	-1154
ulate	-1155
▁auth	-1156
▁cond	-1157
▁five	-1158
▁gall	-1159
▁wind	-1160
ection	-1161
▁const	-1162
ka	-1163
wr	-1164
ato	-1165
bor	-1166
ese	-1167
ici	-1168
oft	-1169
▁bi	-1170
▁ce	-1171
agon	-1172
enty	-1173
ette	-1174
ided	-1175
miss	-1176
oper	-1177
oted	-1178
rang	-1179
tian	-1180
▁ast	-1181
▁bul	-1182
▁cas	-1183
▁hyd	-1184
▁lim	-1185
▁obs	-1186
▁ren	-1187
aring	-1188
ident	-1189
ights	-1190
▁buck	-1191
▁fair	-1192
earing	-1193
ration	-1194
▁blood	-1195
▁class	-1196
▁therm	-1197
yc	-1198
▁u	-1199
aly	-1200
ani	-1201
eed	-1202
gin	-1203
iec	-1204
irt	-1205
ker	-1206
war	-1207
aged	-1208
aled	-1209
cher	-1210
enth	-1211
ests	-1212
greg	-1213
ison	-1214
ores	-1215
ploy	-1216
ries	-1217
▁ann	-1218
▁art	-1219
▁bol	-1220
▁che	-1221
▁est	-1222
▁exh	-1223
▁god	-1224
▁pet	-1225
▁pin	-1226
▁pot	-1227
▁she	-1228
▁sin	-1229
▁suc	-1230
▁tax	-1231
▁tex	-1232
▁unc	-1233
alism	-1234
eling	-1235
ellow	-1236
ength	-1237
ester	-1238
iling	-1239
ising	-1240
other	-1241
usion	-1242
▁dire	-1243
▁fore	-1244
▁good	-1245
▁pass	-1246
▁pick	-1247
▁star	-1248
elling	-1249
ession	-1250
iation	-1251
lement	-1252
▁break	-1253
▁compl	-1254
ta	-1255
ams	-1256
car	-1257
ios	-1258
oin	-1259
oon	-1260
rag	-1261
rin	-1262
ule	-1263
usp	-1264
uts	-1265
▁ha	-1266
amed	-1267
born	-1268
eyed	-1269
hold	-1270
izes	-1271
mann	-1272
orse	-1273
path	-1274
port	-1275
vern	-1276
▁and	-1277
▁bet	-1278
▁cop	-1279
▁dim	-1280
▁dri	-1281
▁ger	-1282
▁glo	-1283
▁jud	-1284
▁sor	-1285
ashed	-1286
class	-1287
inate	-1288
ishes	-1289
ister	-1290
iving	-1291
▁book	-1292
▁free	-1293
▁heav	-1294
▁miss	-1295
▁unre	-1296
ential	-1297
▁south	-1298
▁school	-1299
▁twenty	-1300
esh	-1301
ief	-1302
iqu	-1303
irl	-1304
lee	-1305
lem	-1306
lor	-1307
oms	-1308
ote	-1309
ped	-1310
ums	-1311
une	-1312
ups	-1313
aint	-1314
ancy	-1315
book	-1316
eded	-1317
ench	-1318
grad	-1319
ired	-1320
mind	-1321
ship	-1322
▁add	-1323
▁ban	-1324
▁deb	-1325
▁der	-1326
▁doc	-1327
▁hur	-1328
▁loc	-1329
▁mur	-1330
▁pan	-1331
▁rot	-1332
▁som	-1333
▁spl	-1334
▁top	-1335
▁unp	-1336
ables	-1337
aling	-1338
ament	-1339
ander	-1340
consc	-1341
itter	-1342
ivers	-1343
onder	-1344
owing	-1345
ually	-1346
▁conn	-1347
▁conv	-1348
▁grad	-1349
▁inst	-1350
▁pros	-1351
▁real	-1352
▁stat	-1353
▁summ	-1354
▁trad	-1355
unting	-1356
▁green	-1357
▁imper	-1358
▁liber	-1359
▁light	-1360
fulness	-1361
ication	-1362
inating	-1363
itation	-1364
fe	-1365
gu	-1366
la	-1367
▁x	-1368
acy	-1369
ady	-1370
apt	-1371
bre	-1372
cer	-1373
ena	-1374
erg	-1375
ien	-1376
ocr	-1377
oid	-1378
ras	-1379
uld	-1380
▁du	-1381
▁os	-1382
▁ow	-1383
▁su	-1384
▁us	-1385
abil	-1386
ager	-1387
ands	-1388
cept	-1389
ider	-1390
ills	-1391
onic	-1392
orts	-1393
rant	-1394
uded	-1395
udes	-1396
▁adj	-1397
▁adm	-1398
▁bon	-1399
▁cam	-1400
▁fro	-1401
▁han	-1402
▁hem	-1403
▁mad	-1404
▁pos	-1405
▁vac	-1406
elled	-1407
ender	-1408
etric	-1409
light	-1410
▁foot	-1411
▁home	-1412
▁mass	-1413
▁prov	-1414
▁with	-1415
▁exper	-1416
▁north	-1417
ibility	-1418
dy	-1419
ld	-1420
auc	-1421
eds	-1422
enz	-1423
irm	-1424
ius	-1425
oke	-1426
ols	-1427
run	-1428
tig	-1429
tra	-1430
yth	-1431
aces	-1432
ayed	-1433
ense	-1434
ires	-1435
ival	-1436
kins	-1437
rist	-1438
▁aud	-1439
▁bee	-1440
▁bus	-1441
▁cos	-1442
▁dog	-1443
▁don	-1444
▁hor	-1445
▁lar	-1446
▁mol	-1447
▁nar	-1448
▁opp	-1449
▁rid	-1450
▁sav	-1451
▁shr	-1452
▁win	-1453
aired	-1454
astic	-1455
aying	-1456
ument	-1457
▁jack	-1458
▁oper	-1459
▁phys	-1460
▁poly	-1461
▁prim	-1462
▁suff	-1463
▁wall	-1464
aining	-1465
alized	-1466
erican	-1467
iction	-1468
inated	-1469
▁organ	-1470
▁double	-1471
▁second	-1472
ho	-1473
lu	-1474
yd	-1475
yr	-1476
abb	-1477
agg	-1478
azz	-1479
eff	-1480
ete	-1481
ift	-1482
ohn	-1483
uct	-1484
vey	-1485
▁ur	-1486
eler	-1487
face	-1488
hood	-1489
ibly	-1490
ices	-1491
iest	-1492
ject	-1493
mans	-1494
oked	-1495
omic	-1496
oses	-1497
osis	-1498
ourn	-1499
rous	-1500
vert	-1501
▁ble	-1502
▁cav	-1503
▁clo	-1504
▁cul	-1505
▁cut	-1506
▁dig	-1507
▁dil	-1508
▁enc	-1509
▁fam	-1510
▁fri	-1511
▁gri	-1512
▁gun	-1513
▁may	-1514
▁nov	-1515
▁pap	-1516
▁ped	-1517
▁pen	-1518
▁ram	-1519
▁rob	-1520
▁run	-1521
▁sar	-1522
▁sid	-1523
▁tal	-1524
▁thr	-1525
▁unw	-1526
▁voc	-1527
build	-1528
itive	-1529
orted	-1530
under	-1531
▁bell	-1532
▁brid	-1533
▁comb	-1534
▁fire	-1535
▁full	-1536
▁prom	-1537
▁soft	-1538
▁whit	-1539
illing	-1540
lessly	-1541
ressed	-1542
tively	-1543
▁dream	-1544
▁spect	-1545
iveness	-1546
looking	-1547
ression	-1548
▁contin	-1549
ox	-1550
aks	-1551
aph	-1552
her	-1553
ibr	-1554
ket	-1555
obb	-1556
occ	-1557
och	-1558
omp	-1559
pet	-1560
raw	-1561
rep	-1562
ulf	-1563
utt	-1564
▁mi	-1565
▁wa	-1566
asts	-1567
eman	-1568
ived	-1569
lock	-1570
ough	-1571
quis	-1572
seud	-1573
ther	-1574
till	-1575
uses	-1576
wide	-1577
zing	-1578
▁adv	-1579
▁bes	-1580
▁cer	-1581
▁cry	-1582
▁dar	-1583
▁esc	-1584
▁how	-1585
▁inn	-1586
▁jew	-1587
▁lov	-1588
▁luc	-1589
▁max	-1590
▁mot	-1591
▁pas	-1592
▁pop	-1593
▁pul	-1594
▁sac	-1595
▁sen	-1596
▁son	-1597
▁typ	-1598
▁var	-1599
acked	-1600
akers	-1601
anted	-1602
ience	-1603
isted	-1604
istor	-1605
roduc	-1606
unted	-1607
▁call	-1608
▁draw	-1609
▁magn	-1610
▁near	-1611
▁plan	-1612
▁pret	-1613
▁quar	-1614
▁sand	-1615
▁serv	-1616
▁tele	-1617
ifying	-1618
minded	-1619
▁broad	-1620
▁micro	-1621
▁pseud	-1622
▁recon	-1623
▁round	-1624
atively	-1625
ography	-1626
raction	-1627
▁person	-1628
▁thirty	-1629
conscious	-1630
agu	-1631
ald	-1632
ama	-1633
ata	-1634
aut	-1635
bel	-1636
bol	-1637
bro	-1638
dri	-1639
equ	-1640
hol	-1641
isp	-1642
kin	-1643
lar	-1644
lim	-1645
olk	-1646
ubb	-1647
uis	-1648
zen	-1649
▁it	-1650
▁ox	-1651
ails	-1652
ange	-1653
arch	-1654
ects	-1655
fact	-1656
ivid	-1657
rate	-1658
▁aer	-1659
▁asp	-1660
▁ben	-1661
▁big	-1662
▁cri	-1663
▁eye	-1664
▁flu	-1665
▁haw	-1666
▁hot	-1667
▁log	-1668
▁mas	-1669
▁mut	-1670
▁nat	-1671
▁old	-1672
▁slo	-1673
▁vic	-1674
ailed	-1675
asing	-1676
claim	-1677
eller	-1678
faced	-1679
iable	-1680
iated	-1681
ictor	-1682
ighty	-1683
ipped	-1684
itten	-1685
lands	-1686
lying	-1687
ribut	-1688
tible	-1689
worth	-1690
▁batt	-1691
▁best	-1692
▁cand	-1693
▁corn	-1694
▁desp	-1695
▁perf	-1696
▁poss	-1697
▁rich	-1698
▁shar	-1699
▁stud	-1700
▁wash	-1701
estion	-1702
ington	-1703
orient	-1704
orship	-1705
▁child	-1706
▁fifty	-1707
▁impro	-1708
▁overs	-1709
▁revol	-1710
▁white	-1711
▁sevent	-1712
tw	-1713
any	-1714
bal	-1715
boy	-1716
ced	-1717
ems	-1718
ety	-1719
imm	-1720
izz	-1721
law	-1722
ogn	-1723
sch	-1724
set	-1725
sky	-1726
tor	-1727
tur	-1728
uel	-1729
▁ga	-1730
▁gh	-1731
▁ly	-1732
▁ut	-1733
ader	-1734
anch	-1735
aped	-1736
bell	-1737
fall	-1738
foot	-1739
free	-1740
hear	-1741
icks	-1742
irth	-1743
lers	-1744
ocks	-1745
oral	-1746
ping	-1747
rows	-1748
tick	-1749
tier	-1750
unch	-1751
used	-1752
▁ath	-1753
▁bab	-1754
▁bad	-1755
▁bri	-1756
▁bud	-1757
▁cab	-1758
▁ens	-1759
▁gas	-1760
▁ham	-1761
▁ide	-1762
▁lay	-1763
▁maj	-1764
▁nor	-1765
▁por	-1766
▁ros	-1767
▁sto	-1768
aches	-1769
acter	-1770
aging	-1771
armed	-1772
iance	-1773
iding	-1774
itted	-1775
ollar	-1776
round	-1777
stein	-1778
umber	-1779
usted	-1780
▁abst	-1781
▁band	-1782
▁cool	-1783
▁less	-1784
▁list	-1785
▁pain	-1786
▁past	-1787
▁show	-1788
▁ster	-1789
▁term	-1790
▁year	-1791
action	-1792
asting	-1793
ertain	-1794
esting	-1795
filled	-1796
making	-1797
▁appro	-1798
▁night	-1799
▁roman	-1800
▁rough	-1801
▁there	-1802
▁determ	-1803
▁partic	-1804
▁single	-1805
▁social	-1806
▁transc	-1807
ba	-1808
ls	-1809
ny	-1810
ara	-1811
eas	-1812
emb	-1813
erc	-1814
ica	-1815
iev	-1816
ilt	-1817
iod	-1818
ipl	-1819
lev	-1820
ola	-1821
osh	-1822
rie	-1823
rit	-1824
ume	-1825
urr	-1826
vol	-1827
yer	-1828
▁ec	-1829
▁fa	-1830
▁jo	-1831
acks	-1832
angu	-1833
chan	-1834
clus	-1835
eted	-1836
ials	-1837
iate	-1838
inal	-1839
itic	-1840
iver	-1841
oman	-1842
omer	-1843
reen	-1844
resp	-1845
step	-1846
tile	-1847
uate	-1848
uman	-1849
umin	-1850
urch	-1851
▁ash	-1852
▁beh	-1853
▁cub	-1854
▁eas	-1855
▁ell	-1856
▁eth	-1857
▁fat	-1858
▁hay	-1859
▁ing	-1860
▁jan	-1861
▁kar	-1862
▁let	-1863
▁lob	-1864
▁mcc	-1865
▁mom	-1866
▁mos	-1867
▁nec	-1868
▁rac	-1869
▁rat	-1870
▁scr	-1871
▁sed	-1872
▁tab	-1873
▁tol	-1874
▁tom	-1875
▁tot	-1876
▁ult	-1877
▁unm	-1878
▁wol	-1879
aning	-1880
arily	-1881
aters	-1882
dered	-1883
eding	-1884
ember	-1885
entif	-1886
ially	-1887
itors	-1888
level	-1889
oting	-1890
ouses	-1891
rated	-1892
state	-1893
tious	-1894
umble	-1895
▁bath	-1896
▁bern	-1897
▁blue	-1898
▁bron	-1899
▁bull	-1900
▁cast	-1901
▁chap	-1902
▁cost	-1903
▁cust	-1904
▁dark	-1905
▁desc	-1906
▁fall	-1907
▁farm	-1908
▁fast	-1909
▁impl	-1910
▁intr	-1911
▁life	-1912
▁mach	-1913
▁mess	-1914
▁mist	-1915
▁orth	-1916
▁part	-1917
▁prog	-1918
▁ship	-1919
▁susp	-1920
▁thre	-1921
▁viol	-1922
ecting	-1923
ective	-1924
haired	-1925
ighted	-1926
mental	-1927
rowing	-1928
uation	-1929
▁count	-1930
▁demon	-1931
▁earth	-1932
▁house	-1933
▁quick	-1934
▁small	-1935
▁stock	-1936
▁thick	-1937
ologist	-1938
▁author	-1939
▁design	-1940
▁disapp	-1941
▁govern	-1942
▁indust	-1943
▁produc	-1944
american	-1945
building	-1946
oriented	-1947
titution	-1948
ulations	-1949
▁straight	-1950
so	-1951
uk	-1952
ape	-1953
ded	-1954
emp	-1955
eys	-1956
iac	-1957
iph	-1958
isl	-1959
ita	-1960
nes	-1961
oes	-1962
osp	-1963
pre	-1964
reh	-1965
tie	-1966
uds	-1967
uns	-1968
▁pa	-1969
▁sy	-1970
alth	-1971
anes	-1972
bury	-1973
cell	-1974
etic	-1975
five	-1976
gers	-1977
icit	-1978
iers	-1979
illy	-1980
inch	-1981
ique	-1982
lets	-1983
long	-1984
ners	-1985
opol	-1986
outs	-1987
pper	-1988
roll	-1989
ront	-1990
teen	-1991
tery	-1992
town	-1993
▁bay	-1994
▁dam	-1995
▁day	-1996
▁dro	-1997
▁fav	-1998
▁fel	-1999
▁mun	-2000
▁mys	-2001
▁pil	-2002
▁saf	-2003
▁sam	-2004
▁san	-2005
▁sul	-2006
▁tit	-2007
▁wid	-2008
alist	-2009
alled	-2010
anced	-2011
apped	-2012
asted	-2013
icate	-2014
idity	-2015
iring	-2016
ision	-2017
night	-2018
stall	-2019
ulous	-2020
water	-2021
▁coup	-2022
▁dead	-2023
▁dram	-2024
▁flor	-2025
▁hall	-2026
▁hang	-2027
▁inex	-2028
▁insp	-2029
▁line	-2030
▁meth	-2031
▁open	-2032
▁prev	-2033
▁repl	-2034
▁stri	-2035
▁tang	-2036
▁west	-2037
ailing	-2038
apping	-2039
encies	-2040
headed	-2041
inking	-2042
▁brand	-2043
▁first	-2044
▁forty	-2045
▁frank	-2046
▁press	-2047
▁stand	-2048
▁sweet	-2049
▁where	-2050
▁world	-2051
century	-2052
colored	-2053
▁christ	-2054
▁conven	-2055
▁employ	-2056
▁inform	-2057
▁pseudo	-2058
▁public	-2059
ographic	-2060
▁hanover	-2061
▁univers	-2062
ca	-2063
hm	-2064
tt	-2065
abl	-2066
bar	-2067
bon	-2068
bra	-2069
chn	-2070
cut	-2071
eer	-2072
gar	-2073
gon	-2074
iar	-2075
oul	-2076
rav	-2077
rem	-2078
ros	-2079
six	-2080
uzz	-2081
win	-2082
zes	-2083
▁da	-2084
▁ju	-2085
▁od	-2086
▁ta	-2087
abor	-2088
airs	-2089
alog	-2090
ames	-2091
amor	-2092
ante	-2093
aton	-2094
body	-2095
emic	-2096
fort	-2097
iced	-2098
ilar	-2099
ingu	-2100
iron	-2101
iser	-2102
isms	-2103
ivil	-2104
mate	-2105
rope	-2106
ules	-2107
umed	-2108
wise	-2109
ynam	-2110
▁act	-2111
▁alb	-2112
▁aug	-2113
▁bog	-2114
▁cho	-2115
▁dom	-2116
▁dre	-2117
▁emp	-2118
▁fig	-2119
▁hab	-2120
▁hes	-2121
▁inj	-2122
▁jer	-2123
▁kid	-2124
▁mah	-2125
▁nav	-2126
▁obl	-2127
▁pay	-2128
▁pig	-2129
▁pub	-2130
▁rig	-2131
▁rod	-2132
▁rub	-2133
▁sle	-2134
▁sne	-2135
▁upp	-2136
▁vir	-2137
▁wel	-2138
ached	-2139
acher	-2140
aving	-2141
count	-2142
icked	-2143
ifies	-2144
igned	-2145
mouth	-2146
ocked	-2147
oping	-2148
ories	-2149
osing	-2150
othes	-2151
owled	-2152
proof	-2153
rying	-2154
scrib	-2155
▁acqu	-2156
▁bene	-2157
▁bill	-2158
▁cath	-2159
▁cred	-2160
▁curt	-2161
▁deep	-2162
▁dial	-2163
▁exec	-2164
▁flat	-2165
▁foll	-2166
▁fort	-2167
▁hamm	-2168
▁mort	-2169
▁pant	-2170
▁path	-2171
▁priv	-2172
▁rein	-2173
▁sher	-2174
▁spir	-2175
▁thor	-2176
▁thro	-2177
▁time	-2178
▁warm	-2179
aching	-2180
acking	-2181
atched	-2182
endent	-2183
enting	-2184
ground	-2185
icient	-2186
ission	-2187
isters	-2188
itable	-2189
ometer	-2190
resses	-2191
tivity	-2192
vision	-2193
▁colon	-2194
▁decor	-2195
▁franc	-2196
▁grass	-2197
▁guard	-2198
▁marsh	-2199
▁mater	-2200
▁plain	-2201
▁rever	-2202
▁right	-2203
alities	-2204
ounding	-2205
ulating	-2206
▁comple	-2207
▁differ	-2208
▁individ	-2209
da	-2210
gy	-2211
na	-2212
xt	-2213
ami	-2214
ano	-2215
asm	-2216
aud	-2217
aws	-2218
aze	-2219
ces	-2220
cro	-2221
fts	-2222
ico	-2223
imp	-2224
iny	-2225
isf	-2226
isk	-2227
ken	-2228
low	-2229
ode	-2230
ths	-2231
tib	-2232
uce	-2233
vin	-2234
ycl	-2235
zer	-2236
▁ax	-2237
▁kh	-2238
▁om	-2239
▁py	-2240
▁vi	-2241
▁vo	-2242
aken	-2243
anks	-2244
aste	-2245
atur	-2246
away	-2247
cast	-2248
eder	-2249
ella	-2250
elle	-2251
ells	-2252
emen	-2253
erve	-2254
fire	-2255
four	-2256
iece	-2257
ilit	-2258
ints	-2259
istr	-2260
mile	-2261
onds	-2262
ords	-2263
quet	-2264
rich	-2265
ript	-2266
ston	-2267
tegr	-2268
tice	-2269
ucle	-2270
unts	-2271
utes	-2272
view	-2273
wick	-2274
▁any	-2275
▁bow	-2276
▁box	-2277
▁boy	-2278
▁coc	-2279
▁dor	-2280
▁dur	-2281
▁env	-2282
▁fab	-2283
▁gen	-2284
▁hen	-2285
▁ign	-2286
▁iod	-2287
▁jac	-2288
▁jus	-2289
▁lav	-2290
▁lin	-2291
▁mig	-2292
▁mob	-2293
▁mov	-2294
▁nob	-2295
▁nut	-2296
▁pac	-2297
▁pec	-2298
▁pon	-2299
▁pow	-2300
▁rap	-2301
▁sew	-2302
▁ton	-2303
▁tub	-2304
▁unh	-2305
▁whe	-2306
aming	-2307
eland	-2308
esses	-2309
eters	-2310
lined	-2311
organ	-2312
otted	-2313
place	-2314
posed	-2315
ridge	-2316
ropri	-2317
stand	-2318
tives	-2319
umped	-2320
using	-2321
uster	-2322
uting	-2323
▁bird	-2324
▁bomb	-2325
▁buff	-2326
▁conj	-2327
▁fasc	-2328
▁fund	-2329
▁geor	-2330
▁harm	-2331
▁hold	-2332
▁hors	-2333
▁irre	-2334
▁merc	-2335
▁moon	-2336
▁must	-2337
▁orig	-2338
▁penn	-2339
▁prob	-2340
▁purs	-2341
▁radi	-2342
▁rail	-2343
▁read	-2344
▁repe	-2345
▁road	-2346
▁russ	-2347
▁scar	-2348
▁side	-2349
▁slow	-2350
▁some	-2351
▁soph	-2352
▁stim	-2353
▁surv	-2354
▁syst	-2355
▁trib	-2356
▁turn	-2357
▁wide	-2358
▁wild	-2359
ashing	-2360
eeping	-2361
ellect	-2362
escent	-2363
ipping	-2364
istent	-2365
liness	-2366
ortion	-2367
produc	-2368
undred	-2369
utions	-2370
▁advis	-2371
▁brown	-2372
▁chrom	-2373
▁conce	-2374
▁court	-2375
▁deduc	-2376
▁domin	-2377
▁field	-2378
▁human	-2379
▁hydro	-2380
▁invol	-2381
▁objec	-2382
▁occup	-2383
▁princ	-2384
▁refer	-2385
▁seven	-2386
erstand	-2387
ighting	-2388
manship	-2389
▁common	-2390
▁direct	-2391
▁intern	-2392
▁mechan	-2393
▁observ	-2394
▁secret	-2395
position	-2396
▁success	-2397
ih	-2398
uv	-2399
zy	-2400
ada	-2401
ado	-2402
cra	-2403
cre	-2404
dim	-2405
dom	-2406
fif	-2407
ims	-2408
irk	-2409
kes	-2410
len	-2411
rob	-2412
roc	-2413
ugs	-2414
ula	-2415
umn	-2416
usc	-2417
van	-2418
wor	-2419
yal	-2420
▁ic	-2421
▁ru	-2422
agan	-2423
amin	-2424
aned	-2425
appy	-2426
ateg	-2427
band	-2428
conn	-2429
elli	-2430
fold	-2431
hrop	-2432
idly	-2433
illa	-2434
itar	-2435
made	-2436
mark	-2437
oded	-2438
odes	-2439
omed	-2440
pass	-2441
pres	-2442
pret	-2443
quer	-2444
rain	-2445
rest	-2446
shot	-2447
side	-2448
tial	-2449
uber	-2450
ucks	-2451
uing	-2452
umer	-2453
utch	-2454
week	-2455
▁arg	-2456
▁bos	-2457
▁dan	-2458
▁dav	-2459
▁dry	-2460
▁ess	-2461
▁fal	-2462
▁fra	-2463
▁hus	-2464
▁jun	-2465
▁jur	-2466
▁lib	-2467
▁neg	-2468
▁neo	-2469
▁nin	-2470
▁oil	-2471
▁ord	-2472
▁pit	-2473
▁put	-2474
▁reb	-2475
▁rif	-2476
▁sab	-2477
▁saw	-2478
▁sea	-2479
▁sky	-2480
▁spe	-2481
▁til	-2482
▁unn	-2483
▁wed	-2484
acing	-2485
anger	-2486
ashes	-2487
chron	-2488
coura	-2489
enced	-2490
essed	-2491
ether	-2492
glish	-2493
going	-2494
icial	-2495
ishly	-2496
ittle	-2497
oning	-2498
ordin	-2499
osoph	-2500
ships	-2501
stone	-2502
ushed	-2503
▁beau	-2504
▁beck	-2505
▁bott	-2506
▁brit	-2507
▁calc	-2508
▁cann	-2509
▁cher	-2510
▁clim	-2511
▁crow	-2512
▁dest	-2513
▁dish	-2514
▁econ	-2515
▁gard	-2516
▁gold	-2517
▁hair	-2518
▁here	-2519
▁hind	-2520
▁imag	-2521
▁john	-2522
▁kenn	-2523
▁kind	-2524
▁lock	-2525
▁mont	-2526
▁mull	-2527
▁neut	-2528
▁norm	-2529
▁pack	-2530
▁prac	-2531
▁prep	-2532
▁ratt	-2533
▁requ	-2534
▁ring	-2535
▁scra	-2536
▁snow	-2537
▁stal	-2538
▁step	-2539
▁stre	-2540
▁stub	-2541
▁subt	-2542
▁text	-2543
▁ther	-2544
▁unsh	-2545
▁week	-2546
acious	-2547
anting	-2548
atches	-2549
commun	-2550
formed	-2551
iating	-2552
master	-2553
racted	-2554
school	-2555
teenth	-2556
ticism	-2557
uality	-2558
weight	-2559
▁admin	-2560
▁analy	-2561
▁angel	-2562
▁build	-2563
▁deter	-2564
▁direc	-2565
▁extra	-2566
▁found	-2567
▁great	-2568
▁heart	-2569
▁horse	-2570
▁hyper	-2571
▁initi	-2572
▁intim	-2573
▁labor	-2574
▁maxim	-2575
▁memor	-2576
▁money	-2577
▁polic	-2578
▁sever	-2579
▁simpl	-2580
▁techn	-2581
▁teleg	-2582
▁third	-2583
control	-2584
itarian	-2585
lection	-2586
▁breath	-2587
▁church	-2588
▁circum	-2589
▁compos	-2590
▁contem	-2591
▁finger	-2592
▁german	-2593
▁ground	-2594
▁intens	-2595
▁master	-2596
▁middle	-2597
▁modern	-2598
▁phosph	-2599
▁superv	-2600
▁symbol	-2601
▁transl	-2602
atically	-2603
ologists	-2604
▁capital	-2605
▁command	-2606
▁instruc	-2607
▁present	-2608
▁seventy	-2609
▁special	-2610
▁national	-2611
▁question	-2612
▁character	-2613
ds	-2614
ga	-2615
jo	-2616
ki	-2617
ago	-2618
alc	-2619
aty	-2620
bet	-2621
cho	-2622
dig	-2623
eem	-2624
een	-2625
eme	-2626
emy	-2627
ews	-2628
fam	-2629
gen	-2630
idd	-2631
ira	-2632
lay	-2633
ocy	-2634
odd	-2635
ods	-2636
oks	-2637
omy	-2638
ora	-2639
ski	-2640
ten	-2641
uge	-2642
▁eg	-2643
▁eu	-2644
▁ey	-2645
▁gn	-2646
▁lu	-2647
▁ts	-2648
▁wo	-2649
▁ye	-2650
▁yo	-2651
▁ze	-2652
ache	-2653
aine	-2654
aire	-2655
aves	-2656
bert	-2657
bird	-2658
cond	-2659
enic	-2660
hard	-2661
heim	-2662
iety	-2663
inct	-2664
mont	-2665
more	-2666
ogue	-2667
otic	-2668
pent	-2669
pers	-2670
phas	-2671
play	-2672
ques	-2673
resh	-2674
ride	-2675
rier	-2676
road	-2677
sequ	-2678
ysis	-2679
▁anc	-2680
▁ans	-2681
▁arb	-2682
▁bew	-2683
▁bod	-2684
▁dol	-2685
▁ele	-2686
▁esp	-2687
▁fed	-2688
▁fly	-2689
▁hop	-2690
▁kil	-2691
▁lev	-2692
▁lew	-2693
▁lie	-2694
▁liv	-2695
▁nic	-2696
▁pam	-2697
▁pav	-2698
▁reh	-2699
▁rud	-2700
▁set	-2701
▁sex	-2702
▁sit	-2703
▁spr	-2704
▁tap	-2705
▁tid	-2706
▁tow	-2707
▁ven	-2708
▁vit	-2709
▁who	-2710
aders	-2711
agger	-2712
antic	-2713
chest	-2714
compl	-2715
eared	-2716
elike	-2717
erved	-2718
eting	-2719
front	-2720
gener	-2721
istry	-2722
known	-2723
ocket	-2724
owned	-2725
point	-2726
uding	-2727
ugged	-2728
▁anim	-2729
▁anno	-2730
▁appe	-2731
▁arab	-2732
▁bang	-2733
▁beat	-2734
▁canc	-2735
▁cele	-2736
▁city	-2737
▁clar	-2738
▁cock	-2739
▁cree	-2740
▁door	-2741
▁enth	-2742
▁fine	-2743
▁fish	-2744
▁flag	-2745
▁forb	-2746
▁gang	-2747
▁gran	-2748
▁grim	-2749
▁grow	-2750
▁happ	-2751
▁hell	-2752
▁host	-2753
▁incl	-2754
▁king	-2755
▁lind	-2756
▁liqu	-2757
▁mack	-2758
▁manu	-2759
▁math	-2760
▁need	-2761
▁news	-2762
▁nine	-2763
▁peti	-2764
▁pray	-2765
▁prem	-2766
▁quad	-2767
▁rain	-2768
▁scot	-2769
▁sear	-2770
▁sent	-2771
▁sold	-2772
▁sque	-2773
▁stir	-2774
▁suit	-2775
▁tall	-2776
▁town	-2777
▁vers	-2778
acting	-2779
alists	-2780
ancing	-2781
atives	-2782
emical	-2783
estern	-2784
handed	-2785
icated	-2786
itters	-2787
omatic	-2788
orting	-2789
tified	-2790
tioned	-2791
ucking	-2792
ushing	-2793
usting	-2794
▁antic	-2795
▁check	-2796
▁chris	-2797
▁chron	-2798
▁civil	-2799
▁color	-2800
▁consc	-2801
▁death	-2802
▁instr	-2803
▁neigh	-2804
▁newly	-2805
▁pleas	-2806
▁power	-2807
▁reass	-2808
▁schol	-2809
▁separ	-2810
▁sixty	-2811
▁state	-2812
▁strat	-2813
alistic	-2814
ception	-2815
covered	-2816
hearted	-2817
ocation	-2818
ularity	-2819
▁apprec	-2820
▁bright	-2821
▁conduc	-2822
▁contra	-2823
▁cooper	-2824
▁eighty	-2825
▁histor	-2826
▁illust	-2827
▁incomp	-2828
▁legisl	-2829
▁mother	-2830
▁nation	-2831
▁prefer	-2832
▁stream	-2833
▁travel	-2834
▁unders	-2835
▁victor	-2836
lessness	-2837
▁conserv	-2838
▁convers	-2839
▁express	-2840
▁quarter	-2841
▁crystall	-2842
▁industri	-2843
▁reproduc	-2844
▁tradition	-2845
▁experiment	-2846
dr	-2847
ek	-2848
gs	-2849
ij	-2850
ru	-2851
sm	-2852
sw	-2853
va	-2854
ala	-2855
awn	-2856
box	-2857
bul	-2858
don	-2859
ept	-2860
eur	-2861
gun	-2862
iat	-2863
igg	-2864
jud	-2865
key	-2866
lav	-2867
lot	-2868
met	-2869
nik	-2870
ois	-2871
ona	-2872
osa	-2873
pay	-2874
ran	-2875
sol	-2876
sty	-2877
tia	-2878
tin	-2879
▁ba	-2880
▁gi	-2881
▁kr	-2882
▁ty	-2883
abel	-2884
acle	-2885
anda	-2886
anny	-2887
apor	-2888
ares	-2889
auer	-2890
ault	-2891
ause	-2892
bach	-2893
boat	-2894
char	-2895
draw	-2896
elly	-2897
etti	-2898
fore	-2899
hour	-2900
ican	-2901
ifer	-2902
iles	-2903
itiv	-2904
mill	-2905
oken	-2906
oles	-2907
olic	-2908
omen	-2909
oner	-2910
onym	-2911
otes	-2912
ounc	-2913
pose	-2914
ramm	-2915
rell	-2916
rick	-2917
scop	-2918
stan	-2919
ster	-2920
thes	-2921
tily	-2922
ture	-2923
uble	-2924
umps	-2925
▁abo	-2926
▁ach	-2927
▁bec	-2928
▁bib	-2929
▁cad	-2930
▁coh	-2931
▁err	-2932
▁fog	-2933
▁gib	-2934
▁hit	-2935
▁kra	-2936
▁lad	-2937
▁lam	-2938
▁lat	-2939
▁len	-2940
▁lik	-2941
▁lun	-2942
▁oct	-2943
▁pel	-2944
▁pic	-2945
▁pip	-2946
▁pra	-2947
▁rum	-2948
▁see	-2949
▁sie	-2950
▁spo	-2951
▁sty	-2952
▁tac	-2953
▁tes	-2954
▁uph	-2955
▁vel	-2956
▁viv	-2957
agged	-2958
ammed	-2959
angel	-2960
backs	-2961
color	-2962
cross	-2963
ector	-2964
estig	-2965
ettes	-2966
grade	-2967
green	-2968
inder	-2969
inity	-2970
iters	-2971
itude	-2972
lings	-2973
liter	-2974
nings	-2975
oming	-2976
order	-2977
oster	-2978
ought	-2979
rooms	-2980
sized	-2981
stage	-2982
story	-2983
uated	-2984
uming	-2985
unter	-2986
urban	-2987
▁alex	-2988
▁bank	-2989
▁barb	-2990
▁barn	-2991
▁beef	-2992
▁boat	-2993
▁body	-2994
▁brad	-2995
▁budd	-2996
▁card	-2997
▁cell	-2998
▁cens	-2999
▁clin	-3000
▁clos	-3001
▁coal	-3002
▁cold	-3003
▁crim	-3004
▁cult	-3005
▁dick	-3006
▁dict	-3007
▁educ	-3008
▁eman	-3009
▁epic	-3010
▁forg	-3011
▁fran	-3012
▁fred	-3013
▁furn	-3014
▁girl	-3015
▁grat	-3016
▁hack	-3017
▁heel	-3018
▁hero	-3019
▁hous	-3020
▁infl	-3021
▁laur	-3022
▁left	-3023
▁loos	-3024
▁mand	-3025
▁meas	-3026
▁mich	-3027
▁musc	-3028
▁nick	-3029
▁obsc	-3030
▁paul	-3031
▁pill	-3032
▁pist	-3033
▁pron	-3034
▁qual	-3035
▁rack	-3036
▁rank	-3037
▁rece	-3038
▁roll	-3039
▁rust	-3040
▁sanc	-3041
▁shel	-3042
▁sick	-3043
▁spin	-3044
▁stan	-3045
▁stew	-3046
▁tail	-3047
▁thin	-3048
▁tong	-3049
▁trac	-3050
▁trem	-3051
▁trim	-3052
▁unin	-3053
▁util	-3054
▁vent	-3055
▁vern	-3056
▁view	-3057
▁yank	-3058
▁york	-3059
coming	-3060
ematic	-3061
ensive	-3062
icious	-3063
icking	-3064
idence	-3065
inding	-3066
inging	-3067
itated	-3068
lected	-3069
ractor	-3070
resent	-3071
ridden	-3072
ularly	-3073
umbled	-3074
▁absor	-3075
▁birth	-3076
▁brief	-3077
▁brush	-3078
▁carol	-3079
▁catch	-3080
▁clear	-3081
▁consp	-3082
▁crack	-3083
▁devel	-3084
▁diagn	-3085
▁drunk	-3086
▁eight	-3087
▁event	-3088
▁fresh	-3089
▁heavy	-3090
▁honey	-3091
▁incor	-3092
▁induc	-3093
▁inher	-3094
▁inhib	-3095
▁journ	-3096
▁liter	-3097
▁lower	-3098
▁music	-3099
▁plant	-3100
▁polar	-3101
▁reapp	-3102
▁sales	-3103
▁sharp	-3104
▁sleep	-3105
▁smith	-3106
▁speed	-3107
▁stiff	-3108
▁table	-3109
▁thyro	-3110
▁ultra	-3111
▁upper	-3112
▁watch	-3113
▁wrong	-3114
agement	-3115
attered	-3116
ishness	-3117
itating	-3118
ousness	-3119
ription	-3120
▁advert	-3121
▁democr	-3122
▁divers	-3123
▁econom	-3124
▁fellow	-3125
▁inters	-3126
▁market	-3127
▁necess	-3128
▁perpet	-3129
▁prepar	-3130
▁reform	-3131
▁spring	-3132
▁temper	-3133
▁wonder	-3134
attering	-3135
▁acceler	-3136
▁congreg	-3137
▁constit	-3138
▁english	-3139
▁process	-3140
▁respons	-3141
alization	-3142
▁investig	-3143
▁progress	-3144
▁rational	-3145
▁transfer	-3146
▁philosoph	-3147
▁telegraph	-3148
▁individual	-3149
▁instrument	-3150
di	-3151
eu	-3152
my	-3153
rh	-3154
uj	-3155
za	-3156
agh	-3157
ags	-3158
ahn	-3159
bly	-3160
bod	-3161
can	-3162
dam	-3163
dec	-3164
des	-3165
edy	-3166
ees	-3167
elm	-3168
eto	-3169
hal	-3170
hem	-3171
hib	-3172
hyd	-3173
ida	-3174
idi	-3175
iot	-3176
ito	-3177
mid	-3178
obs	-3179
oma	-3180
pap	-3181
pat	-3182
pur	-3183
rod	-3184
roy	-3185
sen	-3186
sor	-3187
spe	-3188
tem	-3189
tes	-3190
uer	-3191
urg	-3192
uty	-3193
vet	-3194
xim	-3195
zan	-3196
▁sa	-3197
▁ul	-3198
acer	-3199
addy	-3200
ague	-3201
aler	-3202
amic	-3203
ativ	-3204
augh	-3205
aven	-3206
bone	-3207
case	-3208
chen	-3209
dale	-3210
disc	-3211
ello	-3212
emia	-3213
erts	-3214
etta	-3215
exam	-3216
forc	-3217
gone	-3218
high	-3219
idel	-3220
iler	-3221
inge	-3222
iors	-3223
isse	-3224
kers	-3225
lege	-3226
lier	-3227
neck	-3228
nine	-3229
odge	-3230
okes	-3231
olly	-3232
ople	-3233
oven	-3234
oves	-3235
pric	-3236
pris	-3237
racy	-3238
rams	-3239
reed	-3240
rent	-3241
rian	-3242
rict	-3243
rupt	-3244
tain	-3245
tees	-3246
term	-3247
uals	-3248
uits	-3249
usty	-3250
utin	-3251
vest	-3252
wall	-3253
wind	-3254
▁arc	-3255
▁asc	-3256
▁ask	-3257
▁bef	-3258
▁bic	-3259
▁cot	-3260
▁die	-3261
▁din	-3262
▁dow	-3263
▁dup	-3264
▁fem	-3265
▁foc	-3266
▁fun	-3267
▁gaz	-3268
▁gil	-3269
▁gly	-3270
▁gor	-3271
▁gul	-3272
▁has	-3273
▁haz	-3274
▁ker	-3275
▁key	-3276
▁kne	-3277
▁lif	-3278
▁lil	-3279
▁lor	-3280
▁lub	-3281
▁lur	-3282
▁mey	-3283
▁net	-3284
▁neu	-3285
▁oce	-3286
▁rhe	-3287
▁rul	-3288
▁sad	-3289
▁sax	-3290
▁say	-3291
▁seg	-3292
▁smo	-3293
▁tun	-3294
▁unt	-3295
▁van	-3296
▁vig	-3297
▁wis	-3298
▁wit	-3299
▁wra	-3300
▁wre	-3301
acity	-3302
alize	-3303
amber	-3304
anned	-3305
asion	-3306
based	-3307
berts	-3308
books	-3309
chang	-3310
chief	-3311
emble	-3312
enses	-3313
entic	-3314
essor	-3315
esthe	-3316
glass	-3317
icted	-3318
ients	-3319
iform	-3320
inary	-3321
inged	-3322
insky	-3323
inted	-3324
leton	-3325
matic	-3326
onies	-3327
osity	-3328
otten	-3329
oured	-3330
overs	-3331
oviet	-3332
rical	-3333
table	-3334
tices	-3335
tized	-3336
verse	-3337
wards	-3338
▁acad	-3339
▁alph	-3340
▁anch	-3341
▁aver	-3342
▁bapt	-3343
▁boot	-3344
▁bure	-3345
▁bush	-3346
▁cant	-3347
▁care	-3348
▁case	-3349
▁corp	-3350
▁cosm	-3351
▁dece	-3352
▁dent	-3353
▁diam	-3354
▁disl	-3355
▁fear	-3356
▁fill	-3357
▁folk	-3358
▁fool	-3359
▁fors	-3360
▁frag	-3361
▁func	-3362
▁gent	-3363
▁glor	-3364
▁gray	-3365
▁hart	-3366
▁hill	-3367
▁hosp	-3368
▁inac	-3369
▁ital	-3370
▁jenn	-3371
▁kill	-3372
▁know	-3373
▁leaf	-3374
▁loud	-3375
▁marc	-3376
▁mean	-3377
▁moth	-3378
▁pall	-3379
▁pier	-3380
▁plat	-3381
▁pomp	-3382
▁pool	-3383
▁publ	-3384
▁push	-3385
▁rand	-3386
▁rang	-3387
▁reck	-3388
▁reco	-3389
▁scul	-3390
▁seed	-3391
▁sett	-3392
▁slee	-3393
▁song	-3394
▁spot	-3395
▁spur	-3396
▁stro	-3397
▁stup	-3398
▁teen	-3399
▁thir	-3400
▁virt	-3401
▁ward	-3402
▁weak	-3403
▁wear	-3404
▁whis	-3405
▁wool	-3406
▁yach	-3407
ainted	-3408
angled	-3409
anning	-3410
arians	-3411
boards	-3412
compan	-3413
contin	-3414
dering	-3415
ellers	-3416
enders	-3417
ention	-3418
igning	-3419
iments	-3420
itical	-3421
jected	-3422
ocking	-3423
othing	-3424
ousand	-3425
owered	-3426
uously	-3427
veness	-3428
▁alleg	-3429
▁arist	-3430
▁assoc	-3431
▁autom	-3432
▁benef	-3433
▁champ	-3434
▁clean	-3435
▁defer	-3436
▁every	-3437
▁flood	-3438
▁frost	-3439
▁infer	-3440
▁influ	-3441
▁irrit	-3442
▁louis	-3443
▁mount	-3444
▁mouth	-3445
▁novel	-3446
▁optim	-3447
▁persu	-3448
▁proph	-3449
▁prote	-3450
▁resol	-3451
▁revel	-3452
▁rifle	-3453
▁sound	-3454
▁staff	-3455
▁stair	-3456
▁start	-3457
▁stein	-3458
▁steph	-3459
▁stern	-3460
▁tight	-3461
▁worth	-3462
▁young	-3463
ensions	-3464
essions	-3465
istence	-3466
jection	-3467
knowled	-3468
osition	-3469
ressing	-3470
tivated	-3471
trained	-3472
ulously	-3473
umbling	-3474
▁advent	-3475
▁altern	-3476
▁archit	-3477
▁august	-3478
▁battle	-3479
▁celebr	-3480
▁custom	-3481
▁exhaus	-3482
▁expans	-3483
▁father	-3484
▁french	-3485
▁friend	-3486
▁import	-3487
▁integr	-3488
▁length	-3489
▁metaph	-3490
▁method	-3491
▁patron	-3492
▁prosec	-3493
▁stabil	-3494
▁strong	-3495
▁system	-3496
▁transm	-3497
ensional	-3498
entially	-3499
izations	-3500
▁accompl	-3501
▁announc	-3502
▁concent	-3503
▁conform	-3504
▁contrad	-3505
▁corresp	-3506
▁hundred	-3507
▁sympath	-3508
▁appropri	-3509
▁congress	-3510
▁consider	-3511
▁construc	-3512
▁demonstr	-3513
▁determin	-3514
▁manufact	-3515
▁government	-3516
cr	-3517
ea	-3518
eb	-3519
eg	-3520
pr	-3521
vo	-3522
wa	-3523
zo	-3524
acs	-3525
ael	-3526
aky	-3527
alm	-3528
alo	-3529
amy	-3530
blo	-3531
bri	-3532
cor	-3533
eat	-3534
eav	-3535
ede	-3536
enh	-3537
ero	-3538
exp	-3539
gia	-3540
gra	-3541
hel	-3542
irs	-3543
itr	-3544
joy	-3545
mal	-3546
mes	-3547
neg	-3548
nin	-3549
nut	-3550
olf	-3551
oli	-3552
ota	-3553
ova	-3554
rat	-3555
rey	-3556
ror	-3557
rum	-3558
sec	-3559
sim	-3560
sur	-3561
tex	-3562
top	-3563
two	-3564
ubs	-3565
ulg	-3566
urn	-3567
yll	-3568
▁mu	-3569
▁pi	-3570
▁wy	-3571
acts	-3572
alid	-3573
alle	-3574
ario	-3575
auff	-3576
aved	-3577
beat	-3578
bery	-3579
bing	-3580
burn	-3581
burs	-3582
city	-3583
coat	-3584
come	-3585
conc	-3586
dire	-3587
door	-3588
efin	-3589
etry	-3590
eval	-3591
expl	-3592
gged	-3593
girl	-3594
iana	-3595
iant	-3596
iger	-3597
isan	-3598
isch	-3599
itan	-3600
itig	-3601
itis	-3602
jack	-3603
join	-3604
load	-3605
ogen	-3606
olds	-3607
onde	-3608
oric	-3609
pher	-3610
poon	-3611
rais	-3612
rels	-3613
riet	-3614
star	-3615
thro	-3616
tify	-3617
tire	-3618
tors	-3619
uary	-3620
umen	-3621
umes	-3622
west	-3623
yard	-3624
ymph	-3625
yros	-3626
▁alf	-3627
▁atl	-3628
▁bat	-3629
▁bob	-3630
▁bry	-3631
▁cel	-3632
▁cod	-3633
▁dun	-3634
▁fix	-3635
▁gab	-3636
▁get	-3637
▁gle	-3638
▁gog	-3639
▁gut	-3640
▁gym	-3641
▁hat	-3642
▁hed	-3643
▁ice	-3644
▁joy	-3645
▁led	-3646
▁lit	-3647
▁lod	-3648
▁lud	-3649
▁mck	-3650
▁meg	-3651
▁mix	-3652
▁mud	-3653
▁nag	-3654
▁nap	-3655
▁now	-3656
▁orn	-3657
▁row	-3658
▁sus	-3659
▁tam	-3660
▁tel	-3661
▁tic	-3662
▁too	-3663
▁unl	-3664
▁wat	-3665
▁way	-3666
▁you	-3667
abbed	-3668
acted	-3669
agers	-3670
allow	-3671
anded	-3672
angle	-3673
aniel	-3674
annel	-3675
antas	-3676
aping	-3677
arded	-3678
berry	-3679
ectic	-3680
elder	-3681
elier	-3682
eming	-3683
entil	-3684
epend	-3685
eries	-3686
erner	-3687
erted	-3688
guard	-3689
heads	-3690
icity	-3691
iders	-3692
ighth	-3693
iliar	-3694
inals	-3695
inist	-3696
ither	-3697
izers	-3698
lines	-3699
mates	-3700
oters	-3701
ounds	-3702
plane	-3703
power	-3704
raced	-3705
range	-3706
rayed	-3707
rowed	-3708
three	-3709
tians	-3710
times	-3711
ucked	-3712
uckle	-3713
uries	-3714
uther	-3715
white	-3716
▁amor	-3717
▁ampl	-3718
▁anal	-3719
▁aust	-3720
▁base	-3721
▁bord	-3722
▁burn	-3723
▁chem	-3724
▁cler	-3725
▁cruc	-3726
▁dear	-3727
▁drug	-3728
▁eleg	-3729
▁even	-3730
▁evol	-3731
▁exam	-3732
▁excl	-3733
▁extr	-3734
▁face	-3735
▁fact	-3736
▁fram	-3737
▁gain	-3738
▁gass	-3739
▁gene	-3740
▁holl	-3741
▁hung	-3742
▁inqu	-3743
▁iron	-3744
▁jess	-3745
▁kiss	-3746
▁last	-3747
▁leav	-3748
▁lion	-3749
▁love	-3750
▁mans	-3751
▁mark	-3752
▁mary	-3753
▁mete	-3754
▁mind	-3755
▁more	-3756
▁nons	-3757
▁once	-3758
▁phon	-3759
▁pian	-3760
▁pict	-3761
▁poor	-3762
▁pref	-3763
▁prow	-3764
▁quas	-3765
▁rear	-3766
▁rose	-3767
▁safe	-3768
▁seek	-3769
▁sept	-3770
▁sequ	-3771
▁shif	-3772
▁shut	-3773
▁skin	-3774
▁spar	-3775
▁sund	-3776
▁synd	-3777
▁take	-3778
▁temp	-3779
▁unim	-3780
▁unqu	-3781
▁unst	-3782
▁vacu	-3783
▁vari	-3784
▁verm	-3785
▁vill	-3786
▁vine	-3787
▁walk	-3788
▁what	-3789
alling	-3790
aments	-3791
anders	-3792
arding	-3793
ashion	-3794
assion	-3795
asters	-3796
athers	-3797
atures	-3798
dollar	-3799
employ	-3800
encing	-3801
endant	-3802
enheim	-3803
ensity	-3804
essing	-3805
houses	-3806
idents	-3807
ientif	-3808
ighter	-3809
inning	-3810
inting	-3811
ippers	-3812
isting	-3813
length	-3814
lights	-3815
nesses	-3816
olding	-3817
orning	-3818
ounded	-3819
priced	-3820
rating	-3821
rupted	-3822
temper	-3823
titude	-3824
umming	-3825
urable	-3826
usions	-3827
▁after	-3828
▁alter	-3829
▁appar	-3830
▁arter	-3831
▁begin	-3832
▁blind	-3833
▁block	-3834
▁bound	-3835
▁brass	-3836
▁campa	-3837
▁categ	-3838
▁chart	-3839
▁coinc	-3840
▁congr	-3841
▁cover	-3842
▁deleg	-3843
▁displ	-3844
▁dynam	-3845
▁enter	-3846
▁exhib	-3847
▁exped	-3848
▁favor	-3849
▁freed	-3850
▁frequ	-3851
▁glass	-3852
▁graph	-3853
▁hands	-3854
▁illum	-3855
▁indig	-3856
▁ineff	-3857
▁intra	-3858
▁laugh	-3859
▁manif	-3860
▁match	-3861
▁minim	-3862
▁moder	-3863
▁morph	-3864
▁nucle	-3865
▁oblig	-3866
▁offic	-3867
▁overp	-3868
▁overt	-3869
▁parad	-3870
▁param	-3871
▁patri	-3872
▁peace	-3873
▁physi	-3874
▁pound	-3875
▁price	-3876
▁quiet	-3877
▁radio	-3878
▁relig	-3879
▁rhyth	-3880
▁scand	-3881
▁senti	-3882
▁spark	-3883
▁steam	-3884
▁still	-3885
▁swift	-3886
▁theat	-3887
▁thumb	-3888
▁toler	-3889
▁touch	-3890
▁treas	-3891
▁truth	-3892
▁unpro	-3893
▁veter	-3894
▁whole	-3895
▁willi	-3896
athered	-3897
bearing	-3898
chester	-3899
claimed	-3900
ections	-3901
escence	-3902
holders	-3903
iration	-3904
ishment	-3905
itative	-3906
lecting	-3907
onsored	-3908
racting	-3909
ressive	-3910
utation	-3911
western	-3912
writing	-3913
▁apolog	-3914
▁applic	-3915
▁bronch	-3916
▁budget	-3917
▁confid	-3918
▁consol	-3919
▁critic	-3920
▁depart	-3921
▁dramat	-3922
▁engine	-3923
▁europe	-3924
▁expect	-3925
▁fabric	-3926
▁follow	-3927
▁fourth	-3928
▁fright	-3929
▁incons	-3930
▁instit	-3931
▁little	-3932
▁moment	-3933
▁orthod	-3934
▁parent	-3935
▁patrol	-3936
▁period	-3937
▁predic	-3938
▁prohib	-3939
▁propag	-3940
▁propor	-3941
▁recogn	-3942
▁recomm	-3943
▁resear	-3944
▁sculpt	-3945
▁states	-3946
▁strang	-3947
▁subjec	-3948
▁undert	-3949
▁yellow	-3950
educated	-3951
ications	-3952
itations	-3953
relation	-3954
sounding	-3955
▁antagon	-3956
▁anticip	-3957
▁central	-3958
▁comment	-3959
▁compens	-3960
▁compuls	-3961
▁country	-3962
▁discipl	-3963
▁discuss	-3964
▁electro	-3965
▁federal	-3966
▁foreign	-3967
▁identif	-3968
▁natural	-3969
▁neutral	-3970
▁orchest	-3971
▁politic	-3972
▁respond	-3973
▁substan	-3974
condition	-3975
connected	-3976
ellectual	-3977
istically	-3978
▁accompan	-3979
▁constant	-3980
▁material	-3981
▁particip	-3982
▁predomin	-3983
▁pressure	-3984
▁republic	-3985
▁thorough	-3986
ologically	-3987
▁acknowled	-3988
▁authentic	-3989
▁interview	-3990
▁commission	-3991
▁correspond	-3992
▁photograph	-3993
▁revolution	-3994
▁understand	-3995
ao	-3996
cy	-3997
ez	-3998
ii	-3999
ju	-4000
ko	-4001
sl	-4002
vy	-4003
wy	-4004
alt	-4005
arc	-4006
aro	-4007
atz	-4008
ban	-4009
bee	-4010
bow	-4011
cat	-4012
cur	-4013
def	-4014
die	-4015
elt	-4016
emn	-4017
hit	-4018
iah	-4019
ima	-4020
ipe	-4021
jew	-4022
jus	-4023
kee	-4024
lex	-4025
mas	-4026
oan	-4027
oop	-4028
pes	-4029
ppy	-4030
put	-4031
riv	-4032
rot	-4033
ruc	-4034
whe	-4035
xic	-4036
▁iv	-4037
▁kl	-4038
▁ry	-4039
ador	-4040
agen	-4041
agne	-4042
ales	-4043
angs	-4044
anim	-4045
apes	-4046
ashi	-4047
asso	-4048
asti	-4049
auth	-4050
bott	-4051
bred	-4052
cked	-4053
clad	-4054
cost	-4055
econ	-4056
empt	-4057
enna	-4058
ersh	-4059
esis	-4060
esty	-4061
eyev	-4062
fast	-4063
flow	-4064
game	-4065
ghts	-4066
good	-4067
goti	-4068
gree	-4069
iche	-4070
icip	-4071
idal	-4072
iere	-4073
ieve	-4074
iffe	-4075
inas	-4076
ince	-4077
iner	-4078
just	-4079
kill	-4080
kish	-4081
leys	-4082
lies	-4083
life	-4084
look	-4085
ming	-4086
most	-4087
name	-4088
offs	-4089
oint	-4090
olis	-4091
omon	-4092
onna	-4093
opes	-4094
orns	-4095
orsh	-4096
otte	-4097
oved	-4098
part	-4099
phys	-4100
pled	-4101
post	-4102
rage	-4103
read	-4104
rial	-4105
rill	-4106
rons	-4107
rops	-4108
roth	-4109
shan	-4110
size	-4111
spec	-4112
uder	-4113
uffs	-4114
uity	-4115
uled	-4116
unce	-4117
usts	-4118
uten	-4119
utor	-4120
vely	-4121
verb	-4122
vere	-4123
▁agg	-4124
▁aim	-4125
▁alk	-4126
▁aqu	-4127
▁bio	-4128
▁bir	-4129
▁bug	-4130
▁cha	-4131
▁cyn	-4132
▁dub	-4133
▁dyn	-4134
▁ecl	-4135
▁egg	-4136
▁emo	-4137
▁fan	-4138
▁fee	-4139
▁fes	-4140
▁fox	-4141
▁ful	-4142
▁gau	-4143
▁gay	-4144
▁hav	-4145
▁hex	-4146
▁hog	-4147
▁hos	-4148
▁hub	-4149
▁hym	-4150
▁ion	-4151
▁jar	-4152
▁job	-4153
▁jul	-4154
▁kat	-4155
▁lap	-4156
▁lip	-4157
▁lon	-4158
▁lux	-4159
▁mir	-4160
▁naz	-4161
▁nud	-4162
▁org	-4163
▁ost	-4164
▁pag	-4165
▁paw	-4166
▁pim	-4167
▁pir	-4168
▁pod	-4169
▁rim	-4170
▁rom	-4171
▁sel	-4172
▁sib	-4173
▁sic	-4174
▁sug	-4175
▁sum	-4176
▁tet	-4177
▁unb	-4178
▁vag	-4179
▁wag	-4180
▁wav	-4181
▁wax	-4182
▁wes	-4183
▁wet	-4184
acker	-4185
acles	-4186
aires	-4187
allen	-4188
amped	-4189
annon	-4190
antry	-4191
asper	-4192
atics	-4193
bbing	-4194
birds	-4195
brush	-4196
clock	-4197
eight	-4198
elect	-4199
ellig	-4200
ensed	-4201
estic	-4202
eterm	-4203
ethyl	-4204
fifth	-4205
human	-4206
ician	-4207
icing	-4208
icism	-4209
icken	-4210
icker	-4211
ieved	-4212
ilder	-4213
ilton	-4214
inisc	-4215
inson	-4216
ipper	-4217
issue	-4218
itate	-4219
large	-4220
maker	-4221
month	-4222
occup	-4223
ocity	-4224
ocyan	-4225
olded	-4226
onent	-4227
ority	-4228
othal	-4229
ource	-4230
oused	-4231
ousin	-4232
oving	-4233
piece	-4234
ppers	-4235
rants	-4236
rifug	-4237
rings	-4238
rison	-4239
roman	-4240
sters	-4241
thers	-4242
tings	-4243
uates	-4244
ucker	-4245
union	-4246
urity	-4247
urred	-4248
usias	-4249
usive	-4250
veled	-4251
watch	-4252
▁aber	-4253
▁adam	-4254
▁adul	-4255
▁aggl	-4256
▁amaz	-4257
▁anat	-4258
▁bart	-4259
▁bear	-4260
▁brew	-4261
▁brig	-4262
▁burg	-4263
▁bust	-4264
▁buzz	-4265
▁canv	-4266
▁carb	-4267
▁caus	-4268
▁citi	-4269
▁coff	-4270
▁craw	-4271
▁crew	-4272
▁crus	-4273
▁decl	-4274
▁dism	-4275
▁doll	-4276
▁drag	-4277
▁dual	-4278
▁dull	-4279
▁dust	-4280
▁east	-4281
▁easy	-4282
▁eigh	-4283
▁elim	-4284
▁ench	-4285
▁entr	-4286
▁eval	-4287
▁faul	-4288
▁flav	-4289
▁fres	-4290
▁fron	-4291
▁funn	-4292
▁germ	-4293
▁glob	-4294
▁grac	-4295
▁greg	-4296
▁guar	-4297
▁gull	-4298
▁gust	-4299
▁harv	-4300
▁heat	-4301
▁hend	-4302
▁hide	-4303
▁hope	-4304
▁isol	-4305
▁kick	-4306
▁kidn	-4307
▁lear	-4308
▁libr	-4309
▁lond	-4310
▁look	-4311
▁mail	-4312
▁main	-4313
▁make	-4314
▁mamm	-4315
▁mant	-4316
▁many	-4317
▁meal	-4318
▁meek	-4319
▁mild	-4320
▁much	-4321
▁myth	-4322
▁neck	-4323
▁nost	-4324
▁null	-4325
▁orph	-4326
▁pear	-4327
▁pert	-4328
▁perv	-4329
▁phen	-4330
▁piti	-4331
▁prol	-4332
▁pull	-4333
▁pupp	-4334
▁puzz	-4335
▁rabb	-4336
▁reim	-4337
▁rend	-4338
▁roof	-4339
▁room	-4340
▁ruth	-4341
▁sail	-4342
▁salt	-4343
▁salv	-4344
▁sang	-4345
▁sant	-4346
▁shad	-4347
▁shaw	-4348
▁shot	-4349
▁soci	-4350
▁subd	-4351
▁subm	-4352
▁tart	-4353
▁tend	-4354
▁test	-4355
▁thom	-4356
▁till	-4357
▁toll	-4358
▁tort	-4359
▁tour	-4360
▁tram	-4361
▁trip	-4362
▁unac	-4363
▁unhe	-4364
▁unsc	-4365
▁vice	-4366
▁wage	-4367
▁wins	-4368
▁word	-4369
active	-4370
ampton	-4371
antage	-4372
atured	-4373
backed	-4374
ceived	-4375
commod	-4376
ensing	-4377
entive	-4378
erving	-4379
govern	-4380
ianism	-4381
icates	-4382
idated	-4383
iences	-4384
iently	-4385
ieving	-4386
inates	-4387
inders	-4388
istant	-4389
istics	-4390
itched	-4391
itudes	-4392
loving	-4393
oelect	-4394
ologic	-4395
onious	-4396
otting	-4397
pering	-4398
person	-4399
phosph	-4400
ranged	-4401
reated	-4402
stream	-4403
thirty	-4404
tition	-4405
uating	-4406
umping	-4407
unched	-4408
urance	-4409
valued	-4410
▁above	-4411
▁alien	-4412
▁anglo	-4413
▁artic	-4414
▁artif	-4415
▁asser	-4416
▁brook	-4417
▁burns	-4418
▁chair	-4419
▁chief	-4420
▁chlor	-4421
▁chore	-4422
▁claim	-4423
▁cloth	-4424
▁concl	-4425
▁cream	-4426
▁decre	-4427
▁defin	-4428
▁delic	-4429
▁dimin	-4430
▁disag	-4431
▁dwell	-4432
▁explo	-4433
▁expos	-4434
▁flash	-4435
▁flour	-4436
▁fluor	-4437
▁force	-4438
▁forec	-4439
▁front	-4440
▁fruit	-4441
▁griff	-4442
▁incre	-4443
▁indec	-4444
▁infin	-4445
▁insul	-4446
▁intro	-4447
▁jones	-4448
▁lingu	-4449
▁loose	-4450
▁lyric	-4451
▁malad	-4452
▁manip	-4453
▁melod	-4454
▁metal	-4455
▁navig	-4456
▁negro	-4457
▁numer	-4458
▁nutri	-4459
▁overl	-4460
▁paper	-4461
▁paras	-4462
▁pharm	-4463
▁polym	-4464
▁presc	-4465
▁punct	-4466
▁purch	-4467
▁quint	-4468
▁reduc	-4469
▁remar	-4470
▁resid	-4471
▁satur	-4472
▁stall	-4473
▁stead	-4474
▁stone	-4475
▁store	-4476
▁storm	-4477
▁story	-4478
▁sweat	-4479
▁thank	-4480
▁tooth	-4481
▁tough	-4482
▁troub	-4483
▁trust	-4484
▁uncom	-4485
▁wrest	-4486
actions	-4487
clusive	-4488
elessly	-4489
ensible	-4490
iations	-4491
iciency	-4492
idation	-4493
ilities	-4494
istered	-4495
itching	-4496
ivalent	-4497
lective	-4498
mission	-4499
ometric	-4500
oration	-4501
ractors	-4502
raising	-4503
scribed	-4504
ulatory	-4505
umbered	-4506
veloped	-4507
▁absent	-4508
▁accord	-4509
▁affirm	-4510
▁analog	-4511
▁batter	-4512
▁candid	-4513
▁combat	-4514
▁commit	-4515
▁compan	-4516
▁confer	-4517
▁conjug	-4518
▁conver	-4519
▁corpor	-4520
▁dollar	-4521
▁editor	-4522
▁endeav	-4523
▁establ	-4524
▁extrem	-4525
▁health	-4526
▁interf	-4527
▁interl	-4528
▁junior	-4529
▁knight	-4530
▁medium	-4531
▁orient	-4532
▁perfor	-4533
▁planet	-4534
▁pocket	-4535
▁prayer	-4536
▁precip	-4537
▁prodig	-4538
▁profit	-4539
▁projec	-4540
▁record	-4541
▁revers	-4542
▁review	-4543
▁rhythm	-4544
▁sacrif	-4545
▁satisf	-4546
▁smooth	-4547
▁spirit	-4548
▁sports	-4549
▁struct	-4550
▁supers	-4551
▁threat	-4552
▁virgin	-4553
▁wander	-4554
aturated	-4555
ceptions	-4556
ervation	-4557
inations	-4558
lections	-4559
tibility	-4560
tiveness	-4561
▁aggress	-4562
▁anthrop	-4563
▁bureauc	-4564
▁chronic	-4565
▁commerc	-4566
▁complex	-4567
▁compreh	-4568
▁concert	-4569
▁consult	-4570
▁discern	-4571
▁dispers	-4572
▁encoura	-4573
▁freight	-4574
▁liberal	-4575
▁machine	-4576
▁mineral	-4577
▁monopol	-4578
▁municip	-4579
▁philipp	-4580
▁program	-4581
▁protest	-4582
▁refresh	-4583
▁restric	-4584
▁soldier	-4585
▁station	-4586
▁synthes	-4587
▁thought	-4588
▁weather	-4589
abilities	-4590
political	-4591
quisition	-4592
▁accommod	-4593
▁business	-4594
▁communic	-4595
▁contempl	-4596
▁electric	-4597
▁electron	-4598
▁imperson	-4599
▁improvis	-4600
▁introduc	-4601
▁reminisc	-4602
▁strength	-4603
▁synchron	-4604
ifications	-4605
tification	-4606
▁condition	-4607
▁distribut	-4608
▁interpret	-4609
▁represent	-4610
▁transform	-4611
dimensional	-4612
temperature	-4613
▁differenti	-4614
▁expression	-4615
▁institution	-4616
bi	-4617
ha	-4618
hl	-4619
hu	-4620
nn	-4621
pa	-4622
tv	-4623
uo	-4624
afe	-4625
aft	-4626
ali	-4627
alk	-4628
ask	-4629
ava	-4630
awa	-4631
bas	-4632
cas	-4633
cin	-4634
dep	-4635
ean	-4636
ela	-4637
eli	-4638
enf	-4639
eny	-4640
era	-4641
eus	-4642
fed	-4643
fig	-4644
fro	-4645
fty	-4646
fur	-4647
gel	-4648
god	-4649
han	-4650
hon	-4651
ime	-4652
inf	-4653
ioc	-4654
jah	-4655
kar	-4656
lit	-4657
mur	-4658
nel	-4659
oco	-4660
oga	-4661
olo	-4662
oly	-4663
oni	-4664
oto	-4665
pin	-4666
ply	-4667
pot	-4668
pul	-4669
ria	-4670
ril	-4671
roe	-4672
rov	-4673
san	-4674
sho	-4675
thy	-4676
uhr	-4677
uli	-4678
uma	-4679
urd	-4680
wur	-4681
ymp	-4682
zar	-4683
zon	-4684
▁ay	-4685
▁cy	-4686
▁ek	-4687
▁fi	-4688
▁hi	-4689
▁ki	-4690
▁li	-4691
▁na	-4692
▁nu	-4693
▁ok	-4694
▁pf	-4695
▁uh	-4696
▁zo	-4697
abol	-4698
akin	-4699
alia	-4700
amas	-4701
amps	-4702
anqu	-4703
arms	-4704
atin	-4705
auch	-4706
bers	-4707
bled	-4708
bles	-4709
boys	-4710
cath	-4711
ceed	-4712
chel	-4713
cock	-4714
cott	-4715
ctor	-4716
dled	-4717
duty	-4718
eech	-4719
eeks	-4720
elve	-4721
emer	-4722
emor	-4723
enas	-4724
endo	-4725
enly	-4726
enza	-4727
ergy	-4728
ewed	-4729
ffer	-4730
fish	-4731
folk	-4732
gain	-4733
gall	-4734
gent	-4735
gery	-4736
gray	-4737
grim	-4738
half	-4739
hall	-4740
here	-4741
hole	-4742
iaph	-4743
icky	-4744
icts	-4745
iden	-4746
idge	-4747
igns	-4748
ihil	-4749
ikes	-4750
ilia	-4751
ingy	-4752
inos	-4753
itty	-4754
iven	-4755
izer	-4756
keep	-4757
lasm	-4758
leaf	-4759
lean	-4760
lett	-4761
meas	-4762
norm	-4763
obic	-4764
ocal	-4765
oids	-4766
oker	-4767
opia	-4768
orig	-4769
orus	-4770
othe	-4771
oths	-4772
page	-4773
pear	-4774
phem	-4775
phen	-4776
ples	-4777
plex	-4778
pple	-4779
prot	-4780
quar	-4781
rass	-4782
rays	-4783
ribe	-4784
roit	-4785
rush	-4786
seek	-4787
serv	-4788
spap	-4789
stem	-4790
stra	-4791
supp	-4792
tale	-4793
than	-4794
tico	-4795
tiff	-4796
turn	-4797
uffy	-4798
uger	-4799
unes	-4800
unks	-4801
uper	-4802
urer	-4803
vens	-4804
ware	-4805
wear	-4806
wich	-4807
word	-4808
yers	-4809
ylon	-4810
▁ahm	-4811
▁alm	-4812
▁anx	-4813
▁ard	-4814
▁arn	-4815
▁bac	-4816
▁baw	-4817
▁beg	-4818
▁bil	-4819
▁bot	-4820
▁bru	-4821
▁buc	-4822
▁cau	-4823
▁chi	-4824
▁cic	-4825
▁cig	-4826
▁cin	-4827
▁coy	-4828
▁cum	-4829
▁cun	-4830
▁cyc	-4831
▁ded	-4832
▁dew	-4833
▁dex	-4834
▁dod	-4835
▁dos	-4836
▁dul	-4837
▁elo	-4838
▁enl	-4839
▁fet	-4840
▁fib	-4841
▁fit	-4842
▁fol	-4843
▁gag	-4844
▁het	-4845
▁hob	-4846
▁hys	-4847
▁jes	-4848
▁joh	-4849
▁jon	-4850
▁jub	-4851
▁kam	-4852
▁kay	-4853
▁kee	-4854
▁kim	-4855
▁kle	-4856
▁kon	-4857
▁lag	-4858
▁lem	-4859
▁les	-4860
▁lic	-4861
▁lum	-4862
▁nig	-4863
▁noc	-4864
▁nod	-4865
▁oak	-4866
▁oft	-4867
▁ole	-4868
▁orb	-4869
▁peg	-4870
▁pep	-4871
▁pie	-4872
▁pup	-4873
▁rab	-4874
▁raw	-4875
▁ree	-4876
▁ris	-4877
▁riv	-4878
▁roy	-4879
▁rut	-4880
▁sco	-4881
▁sig	-4882
▁ski	-4883
▁slu	-4884
▁sob	-4885
▁sod	-4886
▁ted	-4887
▁tip	-4888
▁tod	-4889
▁tug	-4890
▁tul	-4891
▁tum	-4892
▁tyr	-4893
▁ure	-4894
▁use	-4895
▁vas	-4896
▁veh	-4897
▁ves	-4898
▁vex	-4899
▁vou	-4900
▁vul	-4901
▁was	-4902
▁wyn	-4903
▁yok	-4904
achel	-4905
after	-4906
alous	-4907
amous	-4908
ansas	-4909
ansen	-4910
anton	-4911
apist	-4912
asant	-4913
assed	-4914
asses	-4915
atern	-4916
athed	-4917
atisf	-4918
attle	-4919
azine	-4920
black	-4921
bling	-4922
borne	-4923
child	-4924
chlor	-4925
chris	-4926
coats	-4927
domin	-4928
ecked	-4929
edged	-4930
egreg	-4931
elers	-4932
eline	-4933
elson	-4934
elves	-4935
estim	-4936
estly	-4937
eston	-4938
euver	-4939
ewing	-4940
ework	-4941
fores	-4942
grand	-4943
group	-4944
iably	-4945
icals	-4946
ieces	-4947
ieves	-4948
inese	-4949
inked	-4950
iping	-4951
iques	-4952
irted	-4953
isher	-4954
itary	-4955
itely	-4956
itory	-4957
itrog	-4958
leman	-4959
lough	-4960
mount	-4961
nosed	-4962
ogene	-4963
opers	-4964
ophon	-4965
orous	-4966
orton	-4967
▁	-4968
e	-4969
i	-4970
s	-4971
a	-4972
n	-4973
r	-4974
t	-4975
o	-4976
l	-4977
d	-4978
c	-4979
u	-4980
m	-4981
g	-4982
p	-4983
h	-4984
b	-4985
y	-4986
f	-4987
-	-4988
v	-4989
w	-4990
k	-4991
'	-4992
z	-4993
x	-4994
j	-4995
q	-4996
>>>>>>> 856af8cfbaad157e5fadf38111ea1048f98eb3bb
